{
  "version": "1.0",
  "truncation": null,
  "padding": null,
  "added_tokens": [
    {
      "id": 0,
      "content": "[PAD]",
      "single_word": false,
      "lstrip": false,
      "rstrip": false,
      "normalized": false,
      "special": true
    },
    {
      "id": 1,
      "content": "[SOS]",
      "single_word": false,
      "lstrip": false,
      "rstrip": false,
      "normalized": false,
      "special": true
    },
    {
      "id": 2,
      "content": "[EOS]",
      "single_word": false,
      "lstrip": false,
      "rstrip": false,
      "normalized": false,
      "special": true
    },
    {
      "id": 3,
      "content": "[SOR]",
      "single_word": false,
      "lstrip": false,
      "rstrip": false,
      "normalized": false,
      "special": true
    },
    {
      "id": 4,
      "content": "[RP]",
      "single_word": false,
      "lstrip": false,
      "rstrip": false,
      "normalized": false,
      "special": true
    },
    {
      "id": 5,
      "content": "[SEN]",
      "single_word": false,
      "lstrip": false,
      "rstrip": false,
      "normalized": false,
      "special": true
    },
    {
      "id": 6,
      "content": "[FRE]",
      "single_word": false,
      "lstrip": false,
      "rstrip": false,
      "normalized": false,
      "special": true
    },
    {
      "id": 7,
      "content": "[ROT]",
      "single_word": false,
      "lstrip": false,
      "rstrip": false,
      "normalized": false,
      "special": true
    },
    {
      "id": 8,
      "content": "[UNK]",
      "single_word": false,
      "lstrip": false,
      "rstrip": false,
      "normalized": false,
      "special": true
    }
  ],
  "normalizer": null,
  "pre_tokenizer": {
    "type": "Whitespace"
  },
  "post_processor": null,
  "decoder": null,
  "model": {
    "type": "BPE",
    "dropout": null,
    "unk_token": "[UNK]",
    "continuing_subword_prefix": null,
    "end_of_word_suffix": null,
    "fuse_unk": false,
    "byte_fallback": false,
    "ignore_merges": false,
    "vocab": {
      "[PAD]": 0,
      "[SOS]": 1,
      "[EOS]": 2,
      "[SOR]": 3,
      "[RP]": 4,
      "[SEN]": 5,
      "[FRE]": 6,
      "[ROT]": 7,
      "[UNK]": 8,
      "!": 9,
      "\"": 10,
      "#": 11,
      "$": 12,
      "%": 13,
      "&": 14,
      "'": 15,
      "(": 16,
      ")": 17,
      "*": 18,
      "+": 19,
      ",": 20,
      "-": 21,
      ".": 22,
      "/": 23,
      "0": 24,
      "1": 25,
      "2": 26,
      "3": 27,
      "4": 28,
      "5": 29,
      "6": 30,
      "7": 31,
      "8": 32,
      "9": 33,
      ":": 34,
      ";": 35,
      "<": 36,
      "=": 37,
      ">": 38,
      "?": 39,
      "@": 40,
      "E": 41,
      "F": 42,
      "N": 43,
      "O": 44,
      "P": 45,
      "R": 46,
      "S": 47,
      "T": 48,
      "[": 49,
      "\\": 50,
      "]": 51,
      "^": 52,
      "_": 53,
      "`": 54,
      "a": 55,
      "b": 56,
      "c": 57,
      "d": 58,
      "e": 59,
      "f": 60,
      "g": 61,
      "h": 62,
      "i": 63,
      "j": 64,
      "k": 65,
      "l": 66,
      "m": 67,
      "n": 68,
      "o": 69,
      "p": 70,
      "q": 71,
      "r": 72,
      "s": 73,
      "t": 74,
      "u": 75,
      "v": 76,
      "w": 77,
      "x": 78,
      "y": 79,
      "z": 80,
      "{": 81,
      "|": 82,
      "}": 83,
      "~": 84,
      "": 85,
      "": 86,
      "": 87,
      "": 88,
      "": 89,
      "": 90,
      "": 91,
      "": 92,
      "©": 93,
      "·": 94,
      "ß": 95,
      "à": 96,
      "á": 97,
      "â": 98,
      "ã": 99,
      "ä": 100,
      "å": 101,
      "æ": 102,
      "ç": 103,
      "è": 104,
      "é": 105,
      "ê": 106,
      "ë": 107,
      "ì": 108,
      "í": 109,
      "î": 110,
      "ï": 111,
      "ð": 112,
      "ñ": 113,
      "ò": 114,
      "ó": 115,
      "ô": 116,
      "õ": 117,
      "ö": 118,
      "ø": 119,
      "ù": 120,
      "ú": 121,
      "û": 122,
      "ü": 123,
      "ý": 124,
      "þ": 125,
      "ā": 126,
      "ă": 127,
      "ć": 128,
      "č": 129,
      "ł": 130,
      "ń": 131,
      "ō": 132,
      "ř": 133,
      "ś": 134,
      "ş": 135,
      "ū": 136,
      "ż": 137,
      "ȏ": 138,
      "ș": 139,
      "ț": 140,
      "́": 141,
      "̃": 142,
      "̇": 143,
      "̈": 144,
      "̊": 145,
      "ά": 146,
      "έ": 147,
      "ή": 148,
      "ί": 149,
      "α": 150,
      "β": 151,
      "γ": 152,
      "δ": 153,
      "ε": 154,
      "η": 155,
      "θ": 156,
      "ι": 157,
      "κ": 158,
      "λ": 159,
      "μ": 160,
      "ν": 161,
      "ο": 162,
      "π": 163,
      "ρ": 164,
      "ς": 165,
      "σ": 166,
      "τ": 167,
      "υ": 168,
      "φ": 169,
      "χ": 170,
      "ω": 171,
      "ό": 172,
      "ώ": 173,
      "ӓ": 174,
      "ᴱ": 175,
      "ᴵ": 176,
      "ᴸ": 177,
      "ᵀ": 178,
      "​": 179,
      "‍": 180,
      "‎": 181,
      "‐": 182,
      "‑": 183,
      "‒": 184,
      "–": 185,
      "—": 186,
      "―": 187,
      "‘": 188,
      "’": 189,
      "“": 190,
      "”": 191,
      "…": 192,
      "‪": 193,
      "‬": 194,
      "′": 195,
      "″": 196,
      "⁠": 197,
      "₂": 198,
      "™": 199,
      "−": 200,
      "∙": 201,
      "≤": 202,
      "≥": 203,
      "─": 204,
      "●": 205,
      "★": 206,
      "♥": 207,
      "ツ": 208,
      "ﬁ": 209,
      "﻿": 210,
      "💰": 211,
      "RP": 212,
      "th": 213,
      "in": 214,
      "OS": 215,
      "an": 216,
      "er": 217,
      "the": 218,
      "re": 219,
      "en": 220,
      "is": 221,
      "on": 222,
      "at": 223,
      "EN": 224,
      "EOS": 225,
      "OR": 226,
      "SOS": 227,
      "SEN": 228,
      "SOR": 229,
      "it": 230,
      "es": 231,
      "ing": 232,
      "or": 233,
      "al": 234,
      "ou": 235,
      "and": 236,
      "st": 237,
      "of": 238,
      "ar": 239,
      "FR": 240,
      "FRE": 241,
      "to": 242,
      "ly": 243,
      "ed": 244,
      "il": 245,
      "ic": 246,
      "as": 247,
      "le": 248,
      "om": 249,
      "ch": 250,
      "el": 251,
      "mo": 252,
      "OT": 253,
      "ROT": 254,
      "ct": 255,
      "ent": 256,
      "ion": 257,
      "se": 258,
      "ut": 259,
      "be": 260,
      "ma": 261,
      "for": 262,
      "that": 263,
      "un": 264,
      "ve": 265,
      "ra": 266,
      "gh": 267,
      "wh": 268,
      "vi": 269,
      "lo": 270,
      "li": 271,
      "de": 272,
      "ver": 273,
      "ul": 274,
      "ro": 275,
      "ce": 276,
      "ab": 277,
      "im": 278,
      "no": 279,
      "ith": 280,
      "fil": 281,
      "film": 282,
      "with": 283,
      "but": 284,
      "am": 285,
      "ri": 286,
      "com": 287,
      "su": 288,
      "ke": 289,
      "ad": 290,
      "sh": 291,
      "ol": 292,
      "la": 293,
      "vie": 294,
      "this": 295,
      "ge": 296,
      "..": 297,
      "fe": 298,
      "di": 299,
      "you": 300,
      "out": 301,
      "its": 302,
      "act": 303,
      "per": 304,
      "ess": 305,
      "ter": 306,
      "ir": 307,
      "sp": 308,
      "ex": 309,
      "one": 310,
      "man": 311,
      "ther": 312,
      "do": 313,
      "ill": 314,
      "all": 315,
      "ta": 316,
      "est": 317,
      "ne": 318,
      "are": 319,
      "ght": 320,
      "ck": 321,
      "od": 322,
      "con": 323,
      "movie": 324,
      "sc": 325,
      "po": 326,
      "ay": 327,
      "so": 328,
      "ap": 329,
      "go": 330,
      "ful": 331,
      "ur": 332,
      "qu": 333,
      "ers": 334,
      "rom": 335,
      "ous": 336,
      "art": 337,
      "ant": 338,
      "em": 339,
      "not": 340,
      "ation": 341,
      "ist": 342,
      "ally": 343,
      "he": 344,
      "wor": 345,
      "us": 346,
      "we": 347,
      "ive": 348,
      "ld": 349,
      "pre": 350,
      "pe": 351,
      "ome": 352,
      "ha": 353,
      "ure": 354,
      "um": 355,
      "ell": 356,
      "ust": 357,
      "by": 358,
      "ory": 359,
      "pro": 360,
      "der": 361,
      "ate": 362,
      "if": 363,
      "some": 364,
      "ough": 365,
      "able": 366,
      "tim": 367,
      "ow": 368,
      "like": 369,
      "ity": 370,
      "...": 371,
      "more": 372,
      "thing": 373,
      "end": 374,
      "up": 375,
      "ig": 376,
      "her": 377,
      "from": 378,
      "id": 379,
      "ast": 380,
      "than": 381,
      "ev": 382,
      "ts": 383,
      "has": 384,
      "char": 385,
      "bo": 386,
      "about": 387,
      "ind": 388,
      "ag": 389,
      "ish": 390,
      "ould": 391,
      "his": 392,
      "op": 393,
      "tr": 394,
      "ight": 395,
      "most": 396,
      "story": 397,
      "ard": 398,
      "very": 399,
      "int": 400,
      "king": 401,
      "ine": 402,
      "me": 403,
      "oun": 404,
      "have": 405,
      "ong": 406,
      "fun": 407,
      "way": 408,
      "who": 409,
      "ss": 410,
      "ence": 411,
      "our": 412,
      "there": 413,
      "jo": 414,
      "pla": 415,
      "rect": 416,
      "can": 417,
      "ie": 418,
      "thr": 419,
      "what": 420,
      "ac": 421,
      "au": 422,
      "direct": 423,
      "ep": 424,
      "reat": 425,
      "ment": 426,
      "just": 427,
      "ich": 428,
      "ye": 429,
      "co": 430,
      "ces": 431,
      "tra": 432,
      "kes": 433,
      "te": 434,
      "itt": 435,
      "charact": 436,
      "mu": 437,
      "less": 438,
      "ks": 439,
      "does": 440,
      "cl": 441,
      "ves": 442,
      "ite": 443,
      "ple": 444,
      "pt": 445,
      "tain": 446,
      "good": 447,
      "ial": 448,
      "br": 449,
      "ies": 450,
      "even": 451,
      "over": 452,
      "ical": 453,
      "any": 454,
      "ass": 455,
      "into": 456,
      "gu": 457,
      "des": 458,
      "ble": 459,
      "ious": 460,
      "fa": 461,
      "ary": 462,
      "perfor": 463,
      "will": 464,
      "gen": 465,
      "wo": 466,
      "ound": 467,
      "dra": 468,
      "ph": 469,
      "off": 470,
      "tt": 471,
      "much": 472,
      "dis": 473,
      "feel": 474,
      "ire": 475,
      "ick": 476,
      "comed": 477,
      "time": 478,
      "mat": 479,
      "too": 480,
      "--": 481,
      "ile": 482,
      "performan": 483,
      "low": 484,
      "ff": 485,
      "pa": 486,
      "ise": 487,
      "ertain": 488,
      "view": 489,
      "ict": 490,
      "ere": 491,
      "pr": 492,
      "fect": 493,
      "ens": 494,
      "bet": 495,
      "ort": 496,
      "well": 497,
      "old": 498,
      "ser": 499,
      "str": 500,
      "other": 501,
      "fo": 502,
      "age": 503,
      "director": 504,
      "tal": 505,
      "wn": 506,
      "make": 507,
      "bl": 508,
      "comedy": 509,
      "play": 510,
      "ins": 511,
      "ok": 512,
      "ot": 513,
      "was": 514,
      "best": 515,
      "ense": 516,
      "gr": 517,
      "ance": 518,
      "cr": 519,
      "ated": 520,
      "ny": 521,
      "every": 522,
      "ide": 523,
      "mar": 524,
      "elf": 525,
      "real": 526,
      "sur": 527,
      "pl": 528,
      "plo": 529,
      "ber": 530,
      "ef": 531,
      "ving": 532,
      "ans": 533,
      "atch": 534,
      "great": 535,
      "vel": 536,
      "their": 537,
      "action": 538,
      "spe": 539,
      "ating": 540,
      "they": 541,
      "cre": 542,
      "wr": 543,
      "get": 544,
      "ame": 545,
      "ach": 546,
      "del": 547,
      "iz": 548,
      "when": 549,
      "which": 550,
      "ice": 551,
      "ult": 552,
      "fl": 553,
      "ars": 554,
      "ack": 555,
      "may": 556,
      "af": 557,
      "inter": 558,
      "gi": 559,
      "how": 560,
      "son": 561,
      "while": 562,
      "thrill": 563,
      "vis": 564,
      "full": 565,
      "never": 566,
      "du": 567,
      "only": 568,
      "ho": 569,
      "entertain": 570,
      "min": 571,
      "ingly": 572,
      "see": 573,
      "work": 574,
      "fin": 575,
      "ily": 576,
      "characters": 577,
      "now": 578,
      "litt": 579,
      "ren": 580,
      "urn": 581,
      "ud": 582,
      "life": 583,
      "scre": 584,
      "little": 585,
      "sub": 586,
      "your": 587,
      "gra": 588,
      "ness": 589,
      "part": 590,
      "new": 591,
      "enough": 592,
      "cent": 593,
      "doesn": 594,
      "ions": 595,
      "funny": 596,
      "watch": 597,
      "ative": 598,
      "mot": 599,
      "ster": 600,
      "fir": 601,
      "ang": 602,
      "ents": 603,
      "hor": 604,
      "mag": 605,
      "vers": 606,
      "them": 607,
      "my": 608,
      "been": 609,
      "et": 610,
      "makes": 611,
      "ying": 612,
      "fam": 613,
      "ip": 614,
      "under": 615,
      "heart": 616,
      "ven": 617,
      "mis": 618,
      "fully": 619,
      "right": 620,
      "ional": 621,
      "love": 622,
      "sm": 623,
      "ry": 624,
      "comp": 625,
      "ild": 626,
      "still": 627,
      "tri": 628,
      "fr": 629,
      "here": 630,
      "first": 631,
      "ak": 632,
      "igh": 633,
      "screen": 634,
      "made": 635,
      "ash": 636,
      "seem": 637,
      "ty": 638,
      "would": 639,
      "ual": 640,
      "could": 641,
      "turn": 642,
      "lack": 643,
      "through": 644,
      "ror": 645,
      "bit": 646,
      "wer": 647,
      "drama": 648,
      "though": 649,
      "mom": 650,
      "come": 651,
      "hu": 652,
      "amer": 653,
      "mer": 654,
      "fre": 655,
      "ark": 656,
      "cess": 657,
      "cin": 658,
      "vies": 659,
      "tru": 660,
      "ably": 661,
      "day": 662,
      "ll": 663,
      "cho": 664,
      "cast": 665,
      "movies": 666,
      "res": 667,
      "big": 668,
      "films": 669,
      "tho": 670,
      "long": 671,
      "war": 672,
      "don": 673,
      "ste": 674,
      "two": 675,
      "character": 676,
      "eng": 677,
      "joy": 678,
      "sa": 679,
      "ately": 680,
      "review": 681,
      "world": 682,
      "ci": 683,
      "sy": 684,
      "sim": 685,
      "emot": 686,
      "show": 687,
      "pp": 688,
      "won": 689,
      "att": 690,
      "vent": 691,
      "something": 692,
      "light": 693,
      "performance": 694,
      "better": 695,
      "ors": 696,
      "also": 697,
      "self": 698,
      "cle": 699,
      "far": 700,
      "bad": 701,
      "ain": 702,
      "je": 703,
      "audi": 704,
      "back": 705,
      "ten": 706,
      "cap": 707,
      "isn": 708,
      "car": 709,
      "scen": 710,
      "hard": 711,
      "ling": 712,
      "should": 713,
      "aut": 714,
      "performances": 715,
      "ved": 716,
      "really": 717,
      "where": 718,
      "many": 719,
      "down": 720,
      "bre": 721,
      "ft": 722,
      "point": 723,
      "ature": 724,
      "row": 725,
      "high": 726,
      "ning": 727,
      "mon": 728,
      "thriller": 729,
      "lau": 730,
      "hap": 731,
      "vo": 732,
      "might": 733,
      "horror": 734,
      "anish": 735,
      "ob": 736,
      "pie": 737,
      "arly": 738,
      "por": 739,
      "own": 740,
      "cra": 741,
      "sat": 742,
      "cont": 743,
      "hum": 744,
      "ically": 745,
      "times": 746,
      "les": 747,
      "elling": 748,
      "spanish": 749,
      "worth": 750,
      "stand": 751,
      "feels": 752,
      "laugh": 753,
      "those": 754,
      "super": 755,
      "ween": 756,
      "effect": 757,
      "ings": 758,
      "inal": 759,
      "bu": 760,
      "form": 761,
      "both": 762,
      "wood": 763,
      "gg": 764,
      "orig": 765,
      "ward": 766,
      "filmma": 767,
      "plot": 768,
      "power": 769,
      "ism": 770,
      "comes": 771,
      "ations": 772,
      "thin": 773,
      "want": 774,
      "sequ": 775,
      "entertaining": 776,
      "year": 777,
      "press": 778,
      "ign": 779,
      "arr": 780,
      "pect": 781,
      "being": 782,
      "writ": 783,
      "sty": 784,
      "find": 785,
      "cas": 786,
      "ever": 787,
      "che": 788,
      "know": 789,
      "enjoy": 790,
      "cial": 791,
      "ually": 792,
      "led": 793,
      "interest": 794,
      "pol": 795,
      "scri": 796,
      "ner": 797,
      "look": 798,
      "cum": 799,
      "ext": 800,
      "beaut": 801,
      "ction": 802,
      "red": 803,
      "between": 804,
      "without": 805,
      "human": 806,
      "fort": 807,
      "peop": 808,
      "ath": 809,
      "que": 810,
      "fore": 811,
      "bel": 812,
      "deli": 813,
      "class": 814,
      "people": 815,
      "mi": 816,
      "americ": 817,
      "gy": 818,
      "col": 819,
      "yet": 820,
      "original": 821,
      "kind": 822,
      "script": 823,
      "pleas": 824,
      "hol": 825,
      "cy": 826,
      "sense": 827,
      "cau": 828,
      "after": 829,
      "pict": 830,
      "spect": 831,
      "mus": 832,
      "surpr": 833,
      "peri": 834,
      "she": 835,
      "med": 836,
      "ys": 837,
      "ele": 838,
      "ences": 839,
      "tale": 840,
      "rel": 841,
      "sk": 842,
      "ways": 843,
      "ale": 844,
      "star": 845,
      "keep": 846,
      "such": 847,
      "comple": 848,
      "ting": 849,
      "expect": 850,
      "hand": 851,
      "exc": 852,
      "ject": 853,
      "val": 854,
      "say": 855,
      "take": 856,
      "read": 857,
      "imag": 858,
      "loo": 859,
      "cause": 860,
      "da": 861,
      "need": 862,
      "bro": 863,
      "cor": 864,
      "fi": 865,
      "quite": 866,
      "sing": 867,
      "moments": 868,
      "ible": 869,
      "ced": 870,
      "another": 871,
      "ates": 872,
      "blo": 873,
      "cut": 874,
      "often": 875,
      "mind": 876,
      "istic": 877,
      "aw": 878,
      "ought": 879,
      "genre": 880,
      "docum": 881,
      "eas": 882,
      "ming": 883,
      "him": 884,
      "anim": 885,
      "again": 886,
      "spir": 887,
      "lot": 888,
      "gre": 889,
      "piece": 890,
      "dark": 891,
      "document": 892,
      "care": 893,
      "then": 894,
      "bra": 895,
      "tic": 896,
      "cept": 897,
      "nothing": 898,
      "because": 899,
      "sin": 900,
      "creat": 901,
      "family": 902,
      "audience": 903,
      "par": 904,
      "set": 905,
      "antic": 906,
      "these": 907,
      "hero": 908,
      "ru": 909,
      "had": 910,
      "minut": 911,
      "mem": 912,
      "last": 913,
      "sent": 914,
      "clo": 915,
      "port": 916,
      "kid": 917,
      "almost": 918,
      "ian": 919,
      "ger": 920,
      "perfect": 921,
      "run": 922,
      "few": 923,
      "ends": 924,
      "tw": 925,
      "humor": 926,
      "ton": 927,
      "seems": 928,
      "mess": 929,
      "emat": 930,
      "stu": 931,
      "gener": 932,
      "vol": 933,
      "produ": 934,
      "picture": 935,
      "gue": 936,
      "19": 937,
      "swe": 938,
      "lea": 939,
      "pos": 940,
      "wonder": 941,
      "fran": 942,
      "ney": 943,
      "cinemat": 944,
      "dist": 945,
      "illi": 946,
      "beauti": 947,
      "ond": 948,
      "den": 949,
      "desp": 950,
      "ms": 951,
      "tit": 952,
      "person": 953,
      "bas": 954,
      "pul": 955,
      "going": 956,
      "happ": 957,
      "gets": 958,
      "appe": 959,
      "surpris": 960,
      "did": 961,
      "ted": 962,
      "add": 963,
      "suc": 964,
      "takes": 965,
      "lead": 966,
      "ody": 967,
      "hal": 968,
      "sex": 969,
      "hist": 970,
      "land": 971,
      "sho": 972,
      "before": 973,
      "filmmak": 974,
      "feature": 975,
      "seen": 976,
      "ics": 977,
      "ality": 978,
      "20": 979,
      "ia": 980,
      "poss": 981,
      "mor": 982,
      "wom": 983,
      "ason": 984,
      "despite": 985,
      "gl": 986,
      "ously": 987,
      "hel": 988,
      "documentary": 989,
      "diff": 990,
      "ross": 991,
      "oc": 992,
      "american": 993,
      "narr": 994,
      "let": 995,
      "rather": 996,
      "aren": 997,
      "youn": 998,
      "ages": 999,
      "making": 1000,
      "ultim": 1001,
      "cer": 1002,
      "terri": 1003,
      "experi": 1004,
      "graph": 1005,
      "stru": 1006,
      "strong": 1007,
      "same": 1008,
      "emotional": 1009,
      "ps": 1010,
      "head": 1011,
      "iness": 1012,
      "ane": 1013,
      "icul": 1014,
      "mel": 1015,
      "night": 1016,
      "ently": 1017,
      "viol": 1018,
      "put": 1019,
      "ree": 1020,
      "tty": 1021,
      "lywood": 1022,
      "sum": 1023,
      "iting": 1024,
      "visual": 1025,
      "comm": 1026,
      "si": 1027,
      "itself": 1028,
      "ility": 1029,
      "interesting": 1030,
      "win": 1031,
      "rid": 1032,
      "fans": 1033,
      "ater": 1034,
      "ship": 1035,
      "scenes": 1036,
      "ear": 1037,
      "writer": 1038,
      "mark": 1039,
      "child": 1040,
      "hollywood": 1041,
      "ue": 1042,
      "tting": 1043,
      "lin": 1044,
      "bor": 1045,
      "think": 1046,
      "start": 1047,
      "alo": 1048,
      "ionally": 1049,
      "style": 1050,
      "certain": 1051,
      "portra": 1052,
      "pass": 1053,
      "ca": 1054,
      "works": 1055,
      "top": 1056,
      "cing": 1057,
      "fla": 1058,
      "dre": 1059,
      "stra": 1060,
      "bly": 1061,
      "years": 1062,
      "romantic": 1063,
      "coun": 1064,
      "ni": 1065,
      "na": 1066,
      "ils": 1067,
      "ures": 1068,
      "sure": 1069,
      "things": 1070,
      "watching": 1071,
      "hour": 1072,
      "actors": 1073,
      "lu": 1074,
      "ired": 1075,
      "log": 1076,
      "young": 1077,
      "iv": 1078,
      "satis": 1079,
      "stre": 1080,
      "vid": 1081,
      "itch": 1082,
      "ird": 1083,
      "toge": 1084,
      "together": 1085,
      "men": 1086,
      "half": 1087,
      "fall": 1088,
      "pretty": 1089,
      "dy": 1090,
      "fri": 1091,
      "narrative": 1092,
      "miss": 1093,
      "ultimately": 1094,
      "matic": 1095,
      "anything": 1096,
      "once": 1097,
      "sci": 1098,
      "true": 1099,
      "deep": 1100,
      "sil": 1101,
      "polit": 1102,
      "were": 1103,
      "hn": 1104,
      "lig": 1105,
      "tent": 1106,
      "least": 1107,
      "thought": 1108,
      "cult": 1109,
      "dict": 1110,
      "fresh": 1111,
      "fying": 1112,
      "line": 1113,
      "ange": 1114,
      "away": 1115,
      "vin": 1116,
      "fair": 1117,
      "around": 1118,
      "classic": 1119,
      "har": 1120,
      "cine": 1121,
      "ouch": 1122,
      "ili": 1123,
      "master": 1124,
      "ilar": 1125,
      "io": 1126,
      "sweet": 1127,
      "minutes": 1128,
      "ending": 1129,
      "uni": 1130,
      "cus": 1131,
      "fan": 1132,
      "wa": 1133,
      "main": 1134,
      "cu": 1135,
      "place": 1136,
      "experience": 1137,
      "call": 1138,
      "ments": 1139,
      "fic": 1140,
      "john": 1141,
      "sl": 1142,
      "umb": 1143,
      "sequel": 1144,
      "ply": 1145,
      "ists": 1146,
      "ky": 1147,
      "chr": 1148,
      "series": 1149,
      "gives": 1150,
      "along": 1151,
      "smart": 1152,
      "ither": 1153,
      "fact": 1154,
      "bal": 1155,
      "always": 1156,
      "comic": 1157,
      "advent": 1158,
      "impress": 1159,
      "sol": 1160,
      "capt": 1161,
      "zz": 1162,
      "acting": 1163,
      "sou": 1164,
      "turns": 1165,
      "mater": 1166,
      "wal": 1167,
      "sco": 1168,
      "cinema": 1169,
      "serious": 1170,
      "uring": 1171,
      "everything": 1172,
      "touch": 1173,
      "intel": 1174,
      "explo": 1175,
      "0s": 1176,
      "aging": 1177,
      "black": 1178,
      "fol": 1179,
      "material": 1180,
      "ition": 1181,
      "book": 1182,
      "stead": 1183,
      "als": 1184,
      "music": 1185,
      "av": 1186,
      "dialo": 1187,
      "unch": 1188,
      "unt": 1189,
      "cur": 1190,
      "dri": 1191,
      "whole": 1192,
      "cinematic": 1193,
      "fer": 1194,
      "fel": 1195,
      "fas": 1196,
      "ities": 1197,
      "rare": 1198,
      "rich": 1199,
      "fine": 1200,
      "cond": 1201,
      "yes": 1202,
      "ural": 1203,
      "face": 1204,
      "telling": 1205,
      "kids": 1206,
      "ination": 1207,
      "pu": 1208,
      "predict": 1209,
      "irl": 1210,
      "sound": 1211,
      "mean": 1212,
      "fascin": 1213,
      "dialogue": 1214,
      "coming": 1215,
      "prob": 1216,
      "subject": 1217,
      "ening": 1218,
      "hy": 1219,
      "lid": 1220,
      "use": 1221,
      "empt": 1222,
      "quest": 1223,
      "compelling": 1224,
      "amp": 1225,
      "give": 1226,
      "dep": 1227,
      "entertainment": 1228,
      "ively": 1229,
      "iment": 1230,
      "moving": 1231,
      "side": 1232,
      "laughs": 1233,
      "leg": 1234,
      "teen": 1235,
      "ering": 1236,
      "susp": 1237,
      "cal": 1238,
      "short": 1239,
      "famili": 1240,
      "level": 1241,
      "effects": 1242,
      "ull": 1243,
      "sens": 1244,
      "plays": 1245,
      "hilar": 1246,
      "familiar": 1247,
      "lim": 1248,
      "complete": 1249,
      "sometimes": 1250,
      "cru": 1251,
      "antly": 1252,
      "aring": 1253,
      "brilli": 1254,
      "ben": 1255,
      "mid": 1256,
      "goes": 1257,
      "ken": 1258,
      "lar": 1259,
      "using": 1260,
      "enjoyable": 1261,
      "girl": 1262,
      "prof": 1263,
      "ener": 1264,
      "ited": 1265,
      "non": 1266,
      "ouse": 1267,
      "bar": 1268,
      "why": 1269,
      "history": 1270,
      "moder": 1271,
      "nor": 1272,
      "os": 1273,
      ".\"": 1274,
      "tell": 1275,
      "zy": 1276,
      "ds": 1277,
      "rest": 1278,
      "done": 1279,
      "disap": 1280,
      "live": 1281,
      "deser": 1282,
      "actually": 1283,
      "special": 1284,
      "solid": 1285,
      "entire": 1286,
      "clever": 1287,
      "talent": 1288,
      "three": 1289,
      "ific": 1290,
      "ler": 1291,
      "beautiful": 1292,
      "ute": 1293,
      "version": 1294,
      "dead": 1295,
      "die": 1296,
      "conf": 1297,
      "shot": 1298,
      "cially": 1299,
      "simply": 1300,
      "dou": 1301,
      "differ": 1302,
      "hon": 1303,
      "gor": 1304,
      "cou": 1305,
      "appro": 1306,
      "ball": 1307,
      "vil": 1308,
      "game": 1309,
      "adventure": 1310,
      "dec": 1311,
      "slow": 1312,
      "sit": 1313,
      "since": 1314,
      "paren": 1315,
      "vide": 1316,
      "disappoint": 1317,
      "tern": 1318,
      "clich": 1319,
      "instead": 1320,
      "rock": 1321,
      "dan": 1322,
      "stri": 1323,
      "reason": 1324,
      "franch": 1325,
      "sch": 1326,
      "fascinating": 1327,
      "delivers": 1328,
      "try": 1329,
      "pac": 1330,
      "success": 1331,
      "mix": 1332,
      "genu": 1333,
      "moment": 1334,
      "adap": 1335,
      "psy": 1336,
      "mas": 1337,
      "prom": 1338,
      "second": 1339,
      "usu": 1340,
      "pping": 1341,
      "probably": 1342,
      "genuine": 1343,
      "past": 1344,
      "ames": 1345,
      "ieve": 1346,
      "sad": 1347,
      "matter": 1348,
      "ones": 1349,
      "summer": 1350,
      "roll": 1351,
      "tech": 1352,
      "bi": 1353,
      "small": 1354,
      "vious": 1355,
      "pres": 1356,
      "certainly": 1357,
      "ride": 1358,
      "iev": 1359,
      "gri": 1360,
      "kill": 1361,
      "hold": 1362,
      "easy": 1363,
      "dest": 1364,
      "flick": 1365,
      "fant": 1366,
      "particul": 1367,
      "direction": 1368,
      "engaging": 1369,
      "din": 1370,
      "delight": 1371,
      ",\"": 1372,
      "mic": 1373,
      "truly": 1374,
      "modern": 1375,
      "offers": 1376,
      "appeal": 1377,
      "sw": 1378,
      "ational": 1379,
      "beg": 1380,
      "lish": 1381,
      "ju": 1382,
      "ories": 1383,
      "fra": 1384,
      "crim": 1385,
      "powerful": 1386,
      "allow": 1387,
      "ident": 1388,
      "franchise": 1389,
      "violence": 1390,
      "dream": 1391,
      "predictable": 1392,
      "spi": 1393,
      "role": 1394,
      "defin": 1395,
      "although": 1396,
      "proble": 1397,
      "home": 1398,
      "possible": 1399,
      "anyone": 1400,
      "ceed": 1401,
      "mostly": 1402,
      "intellig": 1403,
      "import": 1404,
      "suspense": 1405,
      "espe": 1406,
      "ground": 1407,
      "scar": 1408,
      "ged": 1409,
      "manages": 1410,
      "ace": 1411,
      "mise": 1412,
      "must": 1413,
      "bud": 1414,
      "equ": 1415,
      "spectac": 1416,
      "bur": 1417,
      "incre": 1418,
      "lect": 1419,
      "especially": 1420,
      "likely": 1421,
      "focus": 1422,
      "romance": 1423,
      "lee": 1424,
      "trans": 1425,
      "ined": 1426,
      "haps": 1427,
      "insp": 1428,
      "thor": 1429,
      "got": 1430,
      "boy": 1431,
      "ension": 1432,
      "ric": 1433,
      "scene": 1434,
      "novel": 1435,
      "body": 1436,
      "ula": 1437,
      "ped": 1438,
      "portrait": 1439,
      "fantas": 1440,
      "berg": 1441,
      "follow": 1442,
      "becomes": 1443,
      "satisfying": 1444,
      "each": 1445,
      "stuff": 1446,
      "looking": 1447,
      "charm": 1448,
      "pat": 1449,
      "complex": 1450,
      "iction": 1451,
      "stop": 1452,
      "invol": 1453,
      "ier": 1454,
      "ized": 1455,
      "title": 1456,
      "craft": 1457,
      "occas": 1458,
      "deliver": 1459,
      "eless": 1460,
      "camer": 1461,
      "deta": 1462,
      "ban": 1463,
      "arch": 1464,
      "pack": 1465,
      "case": 1466,
      "brea": 1467,
      "ready": 1468,
      "final": 1469,
      "bing": 1470,
      "ults": 1471,
      "odra": 1472,
      "beat": 1473,
      "ley": 1474,
      "perhaps": 1475,
      "trying": 1476,
      "effort": 1477,
      "ery": 1478,
      "suff": 1479,
      "lat": 1480,
      "pop": 1481,
      "intri": 1482,
      "premise": 1483,
      "whose": 1484,
      "step": 1485,
      "tone": 1486,
      "filmmaker": 1487,
      "sel": 1488,
      "else": 1489,
      "vision": 1490,
      "sider": 1491,
      "inst": 1492,
      "close": 1493,
      "ues": 1494,
      "gar": 1495,
      "given": 1496,
      "present": 1497,
      "whe": 1498,
      "sor": 1499,
      "enty": 1500,
      "nice": 1501,
      "feeling": 1502,
      "tly": 1503,
      "flaw": 1504,
      "key": 1505,
      "used": 1506,
      "women": 1507,
      "sort": 1508,
      "house": 1509,
      "hope": 1510,
      "mal": 1511,
      "directed": 1512,
      "left": 1513,
      "exam": 1514,
      "political": 1515,
      "audiences": 1516,
      "silly": 1517,
      "myster": 1518,
      "melodra": 1519,
      "scho": 1520,
      "jack": 1521,
      "filmmaking": 1522,
      "edly": 1523,
      "spirit": 1524,
      "graphy": 1525,
      "tch": 1526,
      "everyone": 1527,
      "stud": 1528,
      "result": 1529,
      "tation": 1530,
      "eye": 1531,
      "found": 1532,
      "soul": 1533,
      "bey": 1534,
      "fash": 1535,
      "ular": 1536,
      "struct": 1537,
      "itten": 1538,
      "ral": 1539,
      "ned": 1540,
      "looks": 1541,
      "treat": 1542,
      "thy": 1543,
      "mc": 1544,
      "shows": 1545,
      "viewers": 1546,
      "consider": 1547,
      "school": 1548,
      "comb": 1549,
      "),": 1550,
      "fu": 1551,
      "filmmakers": 1552,
      "plic": 1553,
      "wit": 1554,
      "lit": 1555,
      "exact": 1556,
      "potent": 1557,
      "woman": 1558,
      "fast": 1559,
      "sentiment": 1560,
      "mur": 1561,
      "ability": 1562,
      "nat": 1563,
      "dem": 1564,
      "fortun": 1565,
      "idea": 1566,
      "lost": 1567,
      "tre": 1568,
      "debut": 1569,
      "blood": 1570,
      "fashion": 1571,
      "personal": 1572,
      "tom": 1573,
      "ambit": 1574,
      "surprisingly": 1575,
      "dull": 1576,
      "tro": 1577,
      "ished": 1578,
      "formula": 1579,
      "male": 1580,
      "ines": 1581,
      "abo": 1582,
      "ters": 1583,
      "pain": 1584,
      "itty": 1585,
      "fantasy": 1586,
      "acted": 1587,
      "jokes": 1588,
      "shar": 1589,
      "actor": 1590,
      "ze": 1591,
      "nature": 1592,
      "taking": 1593,
      "ris": 1594,
      "death": 1595,
      "jour": 1596,
      "written": 1597,
      "fire": 1598,
      "friend": 1599,
      "different": 1600,
      "ons": 1601,
      "job": 1602,
      "children": 1603,
      "odd": 1604,
      "beyond": 1605,
      "help": 1606,
      "provo": 1607,
      "keeps": 1608,
      "ges": 1609,
      "wild": 1610,
      "spo": 1611,
      "musical": 1612,
      "wise": 1613,
      "stun": 1614,
      "rele": 1615,
      "charming": 1616,
      "fight": 1617,
      "pri": 1618,
      "production": 1619,
      "ention": 1620,
      "pay": 1621,
      "felt": 1622,
      "extra": 1623,
      "rage": 1624,
      "dog": 1625,
      "animated": 1626,
      "hop": 1627,
      "sequences": 1628,
      "ore": 1629,
      "shock": 1630,
      "next": 1631,
      "logical": 1632,
      "hind": 1633,
      "warm": 1634,
      "lan": 1635,
      "kno": 1636,
      "inspir": 1637,
      "affect": 1638,
      "pur": 1639,
      "tar": 1640,
      "exactly": 1641,
      "cour": 1642,
      "lives": 1643,
      "subt": 1644,
      "leave": 1645,
      "plenty": 1646,
      "become": 1647,
      "han": 1648,
      "ital": 1649,
      "cop": 1650,
      "proves": 1651,
      "relation": 1652,
      "serv": 1653,
      "utter": 1654,
      "velop": 1655,
      "icks": 1656,
      "lacks": 1657,
      "hit": 1658,
      "inv": 1659,
      "und": 1660,
      "hilarious": 1661,
      "worst": 1662,
      "ideas": 1663,
      "gent": 1664,
      "simple": 1665,
      "py": 1666,
      "oney": 1667,
      "slight": 1668,
      "sn": 1669,
      "social": 1670,
      "ib": 1671,
      "ek": 1672,
      "van": 1673,
      "remark": 1674,
      "exciting": 1675,
      "either": 1676,
      "cise": 1677,
      "ring": 1678,
      "oud": 1679,
      "ended": 1680,
      "stars": 1681,
      "based": 1682,
      "tage": 1683,
      "impressive": 1684,
      "imm": 1685,
      "relationship": 1686,
      "message": 1687,
      "gon": 1688,
      "design": 1689,
      "psycho": 1690,
      "anger": 1691,
      "ref": 1692,
      "epic": 1693,
      "behind": 1694,
      "energy": 1695,
      "effective": 1696,
      "white": 1697,
      "vir": 1698,
      "terrific": 1699,
      "cele": 1700,
      "ize": 1701,
      "hours": 1702,
      "storytelling": 1703,
      "cred": 1704,
      "izing": 1705,
      "bring": 1706,
      "convent": 1707,
      "beautifully": 1708,
      "completely": 1709,
      "ding": 1710,
      "vor": 1711,
      "issu": 1712,
      "camera": 1713,
      "dom": 1714,
      "bust": 1715,
      "develop": 1716,
      "tension": 1717,
      "against": 1718,
      "cli": 1719,
      "ially": 1720,
      "celebr": 1721,
      "nearly": 1722,
      "worthy": 1723,
      "invent": 1724,
      "gro": 1725,
      "ker": 1726,
      "approach": 1727,
      "intrigu": 1728,
      "brilliant": 1729,
      "ba": 1730,
      "ali": 1731,
      "animation": 1732,
      "stories": 1733,
      "build": 1734,
      "reg": 1735,
      "twist": 1736,
      "omb": 1737,
      "ase": 1738,
      "understand": 1739,
      "grand": 1740,
      "oscar": 1741,
      "inspired": 1742,
      "air": 1743,
      "ham": 1744,
      "exe": 1745,
      "seeing": 1746,
      "truth": 1747,
      "orable": 1748,
      "elements": 1749,
      "easily": 1750,
      "filled": 1751,
      "wes": 1752,
      "ordin": 1753,
      "adaptation": 1754,
      "career": 1755,
      "flu": 1756,
      "himself": 1757,
      "tv": 1758,
      "except": 1759,
      "ama": 1760,
      "ured": 1761,
      "ential": 1762,
      "lessly": 1763,
      "dramatic": 1764,
      "fails": 1765,
      "quie": 1766,
      "dle": 1767,
      "cons": 1768,
      "chan": 1769,
      "ino": 1770,
      "tast": 1771,
      "didn": 1772,
      "thanks": 1773,
      "onic": 1774,
      "convin": 1775,
      "ade": 1776,
      "wish": 1777,
      "excell": 1778,
      "large": 1779,
      "rema": 1780,
      "usual": 1781,
      "days": 1782,
      "zing": 1783,
      "honest": 1784,
      "straight": 1785,
      "remains": 1786,
      "dig": 1787,
      "oper": 1788,
      "rench": 1789,
      "break": 1790,
      "execut": 1791,
      "ress": 1792,
      "ising": 1793,
      "fail": 1794,
      "var": 1795,
      "crit": 1796,
      "disney": 1797,
      "wants": 1798,
      "hael": 1799,
      "strange": 1800,
      "scary": 1801,
      "stal": 1802,
      "necess": 1803,
      "video": 1804,
      "free": 1805,
      "flat": 1806,
      "michael": 1807,
      "ints": 1808,
      "absol": 1809,
      "clear": 1810,
      "ustr": 1811,
      "pal": 1812,
      "wel": 1813,
      "incl": 1814,
      "mad": 1815,
      "culture": 1816,
      "marvel": 1817,
      "christ": 1818,
      "particularly": 1819,
      "unfortun": 1820,
      "screenplay": 1821,
      "uses": 1822,
      "expected": 1823,
      "itely": 1824,
      "told": 1825,
      "important": 1826,
      "wrong": 1827,
      "mr": 1828,
      "sign": 1829,
      "satire": 1830,
      "extre": 1831,
      "pure": 1832,
      "ga": 1833,
      "lies": 1834,
      "song": 1835,
      "sym": 1836,
      "mill": 1837,
      "ump": 1838,
      "crime": 1839,
      "insight": 1840,
      "nu": 1841,
      "post": 1842,
      "deeply": 1843,
      "having": 1844,
      "ony": 1845,
      "fiction": 1846,
      "contin": 1847,
      "selves": 1848,
      "absolute": 1849,
      "cla": 1850,
      "dam": 1851,
      "pi": 1852,
      "rob": 1853,
      "10": 1854,
      "pra": 1855,
      "heav": 1856,
      "none": 1857,
      "usion": 1858,
      "ese": 1859,
      "maybe": 1860,
      "sla": 1861,
      "study": 1862,
      "dio": 1863,
      "soph": 1864,
      "getting": 1865,
      "third": 1866,
      "attempt": 1867,
      "thetic": 1868,
      "exist": 1869,
      "aged": 1870,
      "dev": 1871,
      "intriguing": 1872,
      "void": 1873,
      "room": 1874,
      "stay": 1875,
      "mes": 1876,
      "ctive": 1877,
      "ement": 1878,
      "wonderful": 1879,
      "natural": 1880,
      "mystery": 1881,
      "iously": 1882,
      "above": 1883,
      "els": 1884,
      "melodrama": 1885,
      "emotionally": 1886,
      "recent": 1887,
      "leaves": 1888,
      "road": 1889,
      "rit": 1890,
      "lik": 1891,
      "magic": 1892,
      "sha": 1893,
      "attention": 1894,
      "batt": 1895,
      "eyes": 1896,
      "istry": 1897,
      "already": 1898,
      "wast": 1899,
      "emp": 1900,
      "howe": 1901,
      "pes": 1902,
      "playing": 1903,
      "verse": 1904,
      "imp": 1905,
      "succeed": 1906,
      "heavy": 1907,
      "four": 1908,
      "excellent": 1909,
      "however": 1910,
      "hell": 1911,
      "conne": 1912,
      "ury": 1913,
      "occasionally": 1914,
      "beauty": 1915,
      "comfort": 1916,
      "max": 1917,
      "concept": 1918,
      "list": 1919,
      "fac": 1920,
      "bond": 1921,
      "jor": 1922,
      "until": 1923,
      "amusing": 1924,
      "pped": 1925,
      "bert": 1926,
      "gag": 1927,
      "dro": 1928,
      "thers": 1929,
      "cool": 1930,
      "falls": 1931,
      "unique": 1932,
      "nam": 1933,
      "james": 1934,
      "whether": 1935,
      "period": 1936,
      "supp": 1937,
      "subtle": 1938,
      "sett": 1939,
      "fut": 1940,
      "quick": 1941,
      "visually": 1942,
      "squ": 1943,
      "passion": 1944,
      "creep": 1945,
      "wi": 1946,
      "ses": 1947,
      "block": 1948,
      "brings": 1949,
      "fron": 1950,
      "punch": 1951,
      "aim": 1952,
      "cul": 1953,
      "hood": 1954,
      "budget": 1955,
      "brit": 1956,
      "ient": 1957,
      "god": 1958,
      "doub": 1959,
      "force": 1960,
      "pan": 1961,
      "wards": 1962,
      "200": 1963,
      "parts": 1964,
      "entirely": 1965,
      "doing": 1966,
      "incredi": 1967,
      "respect": 1968,
      "obvious": 1969,
      "tries": 1970,
      "earn": 1971,
      "forge": 1972,
      "consist": 1973,
      "reve": 1974,
      "david": 1975,
      "sem": 1976,
      "ordinary": 1977,
      "icult": 1978,
      "contri": 1979,
      "ilo": 1980,
      "decent": 1981,
      "guy": 1982,
      "ison": 1983,
      "allen": 1984,
      "question": 1985,
      "bare": 1986,
      "crafted": 1987,
      "extreme": 1988,
      "bus": 1989,
      "space": 1990,
      "perfectly": 1991,
      "running": 1992,
      "glo": 1993,
      "pho": 1994,
      "grow": 1995,
      "tran": 1996,
      "stick": 1997,
      "mart": 1998,
      "western": 1999,
      "journey": 2000,
      "ared": 2001,
      "subst": 2002,
      "appre": 2003,
      "meaning": 2004,
      "ttable": 2005,
      "fig": 2006,
      "someone": 2007,
      "atmo": 2008,
      "depth": 2009,
      "cks": 2010,
      "boring": 2011,
      "sharp": 2012,
      "difficult": 2013,
      "atmosp": 2014,
      "strugg": 2015,
      "arn": 2016,
      "deserves": 2017,
      "throw": 2018,
      "superhero": 2019,
      "reality": 2020,
      "lines": 2021,
      "adm": 2022,
      "among": 2023,
      "intent": 2024,
      "skill": 2025,
      "ises": 2026,
      "stat": 2027,
      "exer": 2028,
      "aster": 2029,
      "america": 2030,
      "moral": 2031,
      "bles": 2032,
      "city": 2033,
      "early": 2034,
      "ised": 2035,
      "logy": 2036,
      "event": 2037,
      "middle": 2038,
      "pleasant": 2039,
      "imagin": 2040,
      "couple": 2041,
      "finally": 2042,
      "forgettable": 2043,
      "date": 2044,
      "era": 2045,
      "mere": 2046,
      "itting": 2047,
      "201": 2048,
      "latest": 2049,
      "itive": 2050,
      "water": 2051,
      "ket": 2052,
      "writing": 2053,
      "ggest": 2054,
      "sun": 2055,
      "suggest": 2056,
      "reach": 2057,
      "hom": 2058,
      "quality": 2059,
      "weight": 2060,
      "intelligent": 2061,
      "itation": 2062,
      "stup": 2063,
      "unfortunately": 2064,
      "liter": 2065,
      "needs": 2066,
      "violent": 2067,
      ".'": 2068,
      "ost": 2069,
      "crow": 2070,
      "exper": 2071,
      "believ": 2072,
      "single": 2073,
      "standard": 2074,
      "box": 2075,
      "nic": 2076,
      "law": 2077,
      "bling": 2078,
      "minute": 2079,
      "viewer": 2080,
      "cover": 2081,
      "problem": 2082,
      "ares": 2083,
      "repe": 2084,
      "ered": 2085,
      "appreci": 2086,
      "gun": 2087,
      "within": 2088,
      "happy": 2089,
      "jud": 2090,
      "dumb": 2091,
      "masterpiece": 2092,
      "gic": 2093,
      "contem": 2094,
      "memorable": 2095,
      "parents": 2096,
      ").": 2097,
      "sexual": 2098,
      "pieces": 2099,
      "bri": 2100,
      "chem": 2101,
      "absur": 2102,
      "pace": 2103,
      "taken": 2104,
      "overall": 2105,
      "breaking": 2106,
      "member": 2107,
      "dr": 2108,
      "working": 2109,
      "project": 2110,
      "leads": 2111,
      "played": 2112,
      "remarkable": 2113,
      "deal": 2114,
      "brut": 2115,
      "ams": 2116,
      "neither": 2117,
      "weak": 2118,
      "broad": 2119,
      "wil": 2120,
      "yal": 2121,
      "camp": 2122,
      "burn": 2123,
      "histor": 2124,
      "iety": 2125,
      "test": 2126,
      "sever": 2127,
      "inc": 2128,
      "throughout": 2129,
      "ram": 2130,
      "content": 2131,
      "dim": 2132,
      "remake": 2133,
      "posed": 2134,
      "mil": 2135,
      "welcome": 2136,
      "ah": 2137,
      "spor": 2138,
      "faith": 2139,
      "themselves": 2140,
      "mira": 2141,
      "cinemato": 2142,
      "science": 2143,
      "edge": 2144,
      "otic": 2145,
      "ridicul": 2146,
      "gold": 2147,
      "yed": 2148,
      "lab": 2149,
      "bul": 2150,
      "knows": 2151,
      "gs": 2152,
      "weird": 2153,
      "prede": 2154,
      "thrilling": 2155,
      "greatest": 2156,
      "gone": 2157,
      "believe": 2158,
      "ls": 2159,
      "during": 2160,
      "grace": 2161,
      "themes": 2162,
      "intense": 2163,
      "indi": 2164,
      "expl": 2165,
      "mult": 2166,
      "clearly": 2167,
      "begin": 2168,
      "prim": 2169,
      "cat": 2170,
      "fantast": 2171,
      "move": 2172,
      "core": 2173,
      "finds": 2174,
      "touching": 2175,
      "poign": 2176,
      "cost": 2177,
      "ied": 2178,
      "escap": 2179,
      "pen": 2180,
      "pose": 2181,
      "desc": 2182,
      "poor": 2183,
      "bed": 2184,
      "surprise": 2185,
      "predecess": 2186,
      "haun": 2187,
      "late": 2188,
      "thorough": 2189,
      "count": 2190,
      "pun": 2191,
      "unity": 2192,
      "stupid": 2193,
      "frustr": 2194,
      "color": 2195,
      "desper": 2196,
      "refresh": 2197,
      "delic": 2198,
      "central": 2199,
      "bland": 2200,
      "track": 2201,
      "lie": 2202,
      "compe": 2203,
      "definitely": 2204,
      "impossible": 2205,
      "match": 2206,
      "concer": 2207,
      "word": 2208,
      "ray": 2209,
      "today": 2210,
      "ades": 2211,
      "highly": 2212,
      "ja": 2213,
      "tu": 2214,
      "breath": 2215,
      "numb": 2216,
      "lock": 2217,
      "watchable": 2218,
      "name": 2219,
      "gorge": 2220,
      "gn": 2221,
      "tor": 2222,
      "exercise": 2223,
      "chemistry": 2224,
      "nical": 2225,
      "pleasure": 2226,
      "ping": 2227,
      "sto": 2228,
      "stunning": 2229,
      "inno": 2230,
      "anders": 2231,
      "survi": 2232,
      "achieve": 2233,
      "fashioned": 2234,
      "ices": 2235,
      "trou": 2236,
      "gress": 2237,
      "money": 2238,
      "seriously": 2239,
      "rarely": 2240,
      "chill": 2241,
      "corn": 2242,
      "quir": 2243,
      "ging": 2244,
      "return": 2245,
      "features": 2246,
      "situ": 2247,
      "guil": 2248,
      "sky": 2249,
      "stage": 2250,
      "exp": 2251,
      "worse": 2252,
      "means": 2253,
      "amoun": 2254,
      "gripping": 2255,
      "points": 2256,
      "fear": 2257,
      "conce": 2258,
      "surprising": 2259,
      "loud": 2260,
      "potential": 2261,
      "uss": 2262,
      "witty": 2263,
      "distur": 2264,
      "sal": 2265,
      "aff": 2266,
      "ides": 2267,
      "came": 2268,
      "near": 2269,
      "crowd": 2270,
      "raw": 2271,
      "ator": 2272,
      "support": 2273,
      "across": 2274,
      "ron": 2275,
      "nostal": 2276,
      "giving": 2277,
      "genuinely": 2278,
      "sup": 2279,
      "blow": 2280,
      "epis": 2281,
      "phys": 2282,
      "sour": 2283,
      "smo": 2284,
      "flash": 2285,
      "biop": 2286,
      "female": 2287,
      "umber": 2288,
      "sand": 2289,
      "blockbust": 2290,
      "rive": 2291,
      "british": 2292,
      "detail": 2293,
      "tagon": 2294,
      "course": 2295,
      "cock": 2296,
      "hits": 2297,
      "trad": 2298,
      "rent": 2299,
      "tains": 2300,
      "anti": 2301,
      "stren": 2302,
      "issues": 2303,
      "express": 2304,
      "theat": 2305,
      "apo": 2306,
      "adults": 2307,
      "trip": 2308,
      "vides": 2309,
      "twists": 2310,
      "humour": 2311,
      "utterly": 2312,
      "ibly": 2313,
      "theater": 2314,
      "paced": 2315,
      "alone": 2316,
      "others": 2317,
      "absolutely": 2318,
      "future": 2319,
      "green": 2320,
      "comedies": 2321,
      "demon": 2322,
      "authen": 2323,
      "absurd": 2324,
      "dies": 2325,
      "umph": 2326,
      "ude": 2327,
      "ende": 2328,
      "major": 2329,
      "ened": 2330,
      "ister": 2331,
      "hot": 2332,
      "forward": 2333,
      "ining": 2334,
      "remember": 2335,
      "ances": 2336,
      "conventional": 2337,
      "uneven": 2338,
      "bla": 2339,
      "inside": 2340,
      "psychological": 2341,
      "triumph": 2342,
      "somewhat": 2343,
      "change": 2344,
      "gan": 2345,
      "accom": 2346,
      "provides": 2347,
      "battle": 2348,
      "remind": 2349,
      "wind": 2350,
      "create": 2351,
      "popul": 2352,
      "pse": 2353,
      "bled": 2354,
      "rous": 2355,
      "mood": 2356,
      "hun": 2357,
      "funni": 2358,
      "visuals": 2359,
      "offer": 2360,
      "starts": 2361,
      "venge": 2362,
      "voice": 2363,
      "gest": 2364,
      "net": 2365,
      "cold": 2366,
      "taste": 2367,
      "captures": 2368,
      "thoroughly": 2369,
      "revel": 2370,
      "ution": 2371,
      "questions": 2372,
      "photo": 2373,
      "creative": 2374,
      "villa": 2375,
      "spectacle": 2376,
      "brain": 2377,
      "amazing": 2378,
      "concl": 2379,
      "opport": 2380,
      "feat": 2381,
      "succeeds": 2382,
      "requ": 2383,
      "ires": 2384,
      "ambitious": 2385,
      "ford": 2386,
      "aver": 2387,
      "robert": 2388,
      "streng": 2389,
      "note": 2390,
      "horri": 2391,
      "carto": 2392,
      "sentimental": 2393,
      "sets": 2394,
      "fare": 2395,
      "recomm": 2396,
      "secre": 2397,
      "reson": 2398,
      "eld": 2399,
      "slightly": 2400,
      "thrills": 2401,
      "ask": 2402,
      "noir": 2403,
      "hen": 2404,
      "termin": 2405,
      "rup": 2406,
      "authentic": 2407,
      "lad": 2408,
      "ode": 2409,
      "ink": 2410,
      "protagon": 2411,
      "arily": 2412,
      "ishing": 2413,
      "connect": 2414,
      "winning": 2415,
      "gags": 2416,
      "sam": 2417,
      "tough": 2418,
      "explor": 2419,
      "scott": 2420,
      "lay": 2421,
      "theless": 2422,
      "stone": 2423,
      "cir": 2424,
      "cross": 2425,
      "front": 2426,
      "ridiculous": 2427,
      "uous": 2428,
      "push": 2429,
      "cheap": 2430,
      "wash": 2431,
      "accompl": 2432,
      "team": 2433,
      "necessary": 2434,
      "bab": 2435,
      "strength": 2436,
      "ries": 2437,
      "ina": 2438,
      "awful": 2439,
      "lift": 2440,
      "actress": 2441,
      "barely": 2442,
      "boo": 2443,
      "wars": 2444,
      "relent": 2445,
      "ante": 2446,
      "slick": 2447,
      "round": 2448,
      "words": 2449,
      "draw": 2450,
      "season": 2451,
      "setting": 2452,
      "avoid": 2453,
      "humanity": 2454,
      "tribut": 2455,
      "ran": 2456,
      "brothers": 2457,
      "terms": 2458,
      "foot": 2459,
      "talented": 2460,
      "biopic": 2461,
      "pair": 2462,
      "convincing": 2463,
      "joke": 2464,
      "mach": 2465,
      "favor": 2466,
      "artist": 2467,
      "images": 2468,
      "otherwise": 2469,
      "thoughtful": 2470,
      "fly": 2471,
      "ior": 2472,
      "medio": 2473,
      "resist": 2474,
      "augh": 2475,
      "curi": 2476,
      "east": 2477,
      "const": 2478,
      "imagination": 2479,
      "cha": 2480,
      "resp": 2481,
      "foo": 2482,
      "chang": 2483,
      "example": 2484,
      "impact": 2485,
      "ii": 2486,
      "wall": 2487,
      "ske": 2488,
      "girls": 2489,
      "profound": 2490,
      "tender": 2491,
      "sympa": 2492,
      "cro": 2493,
      "evil": 2494,
      "yourself": 2495,
      "doubt": 2496,
      "frank": 2497,
      "happens": 2498,
      "pot": 2499,
      "iss": 2500,
      "leng": 2501,
      "score": 2502,
      "uck": 2503,
      "fright": 2504,
      "superb": 2505,
      "said": 2506,
      "depict": 2507,
      "chris": 2508,
      "ensive": 2509,
      "creepy": 2510,
      "huge": 2511,
      "bs": 2512,
      "boys": 2513,
      "plan": 2514,
      "sters": 2515,
      "jer": 2516,
      "alleng": 2517,
      "provoc": 2518,
      "contempor": 2519,
      "stylish": 2520,
      "appealing": 2521,
      "monster": 2522,
      "gorgeous": 2523,
      "largely": 2524,
      "fantastic": 2525,
      "band": 2526,
      "known": 2527,
      "involving": 2528,
      "saw": 2529,
      "fat": 2530,
      "fest": 2531,
      "intim": 2532,
      "search": 2533,
      "charis": 2534,
      "french": 2535,
      "jun": 2536,
      "vic": 2537,
      "later": 2538,
      "thro": 2539,
      "bold": 2540,
      "contro": 2541,
      "historical": 2542,
      "ival": 2543,
      "grim": 2544,
      "tight": 2545,
      "traged": 2546,
      "soc": 2547,
      "century": 2548,
      "dazz": 2549,
      "poignant": 2550,
      "san": 2551,
      "bright": 2552,
      "slap": 2553,
      "ivity": 2554,
      "herent": 2555,
      "park": 2556,
      "catch": 2557,
      "ki": 2558,
      "whel": 2559,
      "stretch": 2560,
      "langu": 2561,
      "shad": 2562,
      "somehow": 2563,
      "spl": 2564,
      "several": 2565,
      "multi": 2566,
      "zo": 2567,
      "smith": 2568,
      "footage": 2569,
      "confl": 2570,
      "challeng": 2571,
      "quiet": 2572,
      "complic": 2573,
      "eu": 2574,
      "spectacular": 2575,
      "cking": 2576,
      "ief": 2577,
      "hea": 2578,
      "fairly": 2579,
      "paul": 2580,
      "atter": 2581,
      "bol": 2582,
      "father": 2583,
      "sess": 2584,
      "ka": 2585,
      "created": 2586,
      "mild": 2587,
      "earth": 2588,
      "stream": 2589,
      "viewing": 2590,
      "wers": 2591,
      "emotion": 2592,
      "zen": 2593,
      "ape": 2594,
      "uding": 2595,
      "disturbing": 2596,
      "sag": 2597,
      "upon": 2598,
      "disappointing": 2599,
      "cand": 2600,
      "gif": 2601,
      "forget": 2602,
      "fy": 2603,
      "edu": 2604,
      "hur": 2605,
      "adult": 2606,
      "opening": 2607,
      "prove": 2608,
      "ensem": 2609,
      "frequ": 2610,
      "ghost": 2611,
      "invest": 2612,
      "terror": 2613,
      "moves": 2614,
      "sen": 2615,
      "indie": 2616,
      "standing": 2617,
      "sle": 2618,
      "tense": 2619,
      "contemporary": 2620,
      "atmosphere": 2621,
      "zomb": 2622,
      "mother": 2623,
      "acy": 2624,
      "engross": 2625,
      "bound": 2626,
      "tur": 2627,
      "presents": 2628,
      "medi": 2629,
      "terrible": 2630,
      "justice": 2631,
      "ima": 2632,
      "reco": 2633,
      "sta": 2634,
      "town": 2635,
      "typ": 2636,
      "mass": 2637,
      "willi": 2638,
      "studio": 2639,
      "extremely": 2640,
      "meta": 2641,
      "biz": 2642,
      "fairy": 2643,
      "remin": 2644,
      "ups": 2645,
      "tten": 2646,
      "imagine": 2647,
      "average": 2648,
      "bill": 2649,
      "ants": 2650,
      "awk": 2651,
      "comment": 2652,
      "gang": 2653,
      "country": 2654,
      "lor": 2655,
      "goof": 2656,
      "plain": 2657,
      "ensemble": 2658,
      "sight": 2659,
      "gore": 2660,
      "pix": 2661,
      "sports": 2662,
      "cinematography": 2663,
      "extraordinary": 2664,
      "open": 2665,
      "apart": 2666,
      "fur": 2667,
      "ried": 2668,
      "tack": 2669,
      "safe": 2670,
      "save": 2671,
      "toward": 2672,
      "quickly": 2673,
      "emotions": 2674,
      "events": 2675,
      "motion": 2676,
      "cartoon": 2677,
      "atic": 2678,
      "willing": 2679,
      "rush": 2680,
      "reveal": 2681,
      "cliché": 2682,
      "predecessor": 2683,
      "tragedy": 2684,
      "flaws": 2685,
      "embra": 2686,
      "earnest": 2687,
      "oles": 2688,
      "asp": 2689,
      "dance": 2690,
      "cute": 2691,
      "blockbuster": 2692,
      "assu": 2693,
      "involved": 2694,
      "product": 2695,
      "demand": 2696,
      "lovely": 2697,
      "pic": 2698,
      "danger": 2699,
      "memory": 2700,
      "previous": 2701,
      "talk": 2702,
      "nal": 2703,
      "cris": 2704,
      "successful": 2705,
      "state": 2706,
      "merely": 2707,
      "elev": 2708,
      "distin": 2709,
      "chap": 2710,
      "transform": 2711,
      "riveting": 2712,
      "dynam": 2713,
      "unexpected": 2714,
      "enn": 2715,
      "cher": 2716,
      "inde": 2717,
      "amount": 2718,
      "order": 2719,
      "packed": 2720,
      "ail": 2721,
      "called": 2722,
      "aust": 2723,
      "five": 2724,
      "rise": 2725,
      "yor": 2726,
      "chance": 2727,
      "197": 2728,
      "politics": 2729,
      "delightful": 2730,
      "alien": 2731,
      "imaginative": 2732,
      "hardly": 2733,
      "heartfelt": 2734,
      "balance": 2735,
      "spin": 2736,
      "field": 2737,
      "details": 2738,
      "spider": 2739,
      "served": 2740,
      "depress": 2741,
      "glor": 2742,
      "indul": 2743,
      "surface": 2744,
      "thinking": 2745,
      "needed": 2746,
      "affair": 2747,
      "presence": 2748,
      "ago": 2749,
      "driven": 2750,
      "turned": 2751,
      "tribute": 2752,
      "awkward": 2753,
      "physical": 2754,
      "sheer": 2755,
      "living": 2756,
      "formulaic": 2757,
      "eper": 2758,
      "intelligence": 2759,
      "missing": 2760,
      "engrossing": 2761,
      "tes": 2762,
      "hem": 2763,
      "hands": 2764,
      "peter": 2765,
      "talking": 2766,
      "kin": 2767,
      "disaster": 2768,
      "provocative": 2769,
      "aries": 2770,
      "lets": 2771,
      "dow": 2772,
      "friends": 2773,
      "brid": 2774,
      "bloody": 2775,
      "shoot": 2776,
      "virt": 2777,
      "revenge": 2778,
      "absor": 2779,
      "inventive": 2780,
      "deni": 2781,
      "vag": 2782,
      "forced": 2783,
      "generic": 2784,
      "vul": 2785,
      "walk": 2786,
      "hic": 2787,
      "mud": 2788,
      "length": 2789,
      "fit": 2790,
      "number": 2791,
      "198": 2792,
      "please": 2793,
      "bitter": 2794,
      "sli": 2795,
      "lacking": 2796,
      "numbers": 2797,
      "reli": 2798,
      "iny": 2799,
      "frame": 2800,
      "likable": 2801,
      "gia": 2802,
      "flo": 2803,
      "inspiring": 2804,
      "tired": 2805,
      "moore": 2806,
      "grown": 2807,
      "ppy": 2808,
      "value": 2809,
      "serves": 2810,
      "spiel": 2811,
      "affecting": 2812,
      "anced": 2813,
      "problems": 2814,
      "ided": 2815,
      "fal": 2816,
      "christmas": 2817,
      "murder": 2818,
      "spy": 2819,
      "legend": 2820,
      "tedious": 2821,
      "frustrating": 2822,
      ",'": 2823,
      "ado": 2824,
      "ipul": 2825,
      "shadow": 2826,
      "hip": 2827,
      "ats": 2828,
      "wick": 2829,
      "expectations": 2830,
      "dru": 2831,
      "intimate": 2832,
      "tour": 2833,
      "ency": 2834,
      "mission": 2835,
      "service": 2836,
      "manipul": 2837,
      "brand": 2838,
      "lots": 2839,
      "rout": 2840,
      "colle": 2841,
      "obsess": 2842,
      "emb": 2843,
      "consc": 2844,
      "usually": 2845,
      "hitch": 2846,
      "tells": 2847,
      "cere": 2848,
      "finding": 2849,
      "leading": 2850,
      "couldn": 2851,
      "ug": 2852,
      "ization": 2853,
      "flawed": 2854,
      "scares": 2855,
      "generation": 2856,
      "construct": 2857,
      "due": 2858,
      "actual": 2859,
      "wanted": 2860,
      "dol": 2861,
      "wart": 2862,
      "loc": 2863,
      "shame": 2864,
      "universe": 2865,
      "intro": 2866,
      "descri": 2867,
      "ibility": 2868,
      "including": 2869,
      "ption": 2870,
      "friendship": 2871,
      "prec": 2872,
      "holi": 2873,
      "haunting": 2874,
      "source": 2875,
      "meas": 2876,
      "guys": 2877,
      "recommend": 2878,
      "sounds": 2879,
      "process": 2880,
      "modest": 2881,
      "directors": 2882,
      "cultural": 2883,
      "striking": 2884,
      "unlike": 2885,
      "brutal": 2886,
      "soon": 2887,
      "wait": 2888,
      "writers": 2889,
      "roles": 2890,
      "vivid": 2891,
      "outrage": 2892,
      "surprises": 2893,
      "born": 2894,
      "iest": 2895,
      "hall": 2896,
      "refer": 2897,
      "eleg": 2898,
      "jones": 2899,
      "attra": 2900,
      "regard": 2901,
      "pixar": 2902,
      "rated": 2903,
      "excess": 2904,
      "credit": 2905,
      "ana": 2906,
      "bot": 2907,
      "position": 2908,
      "sac": 2909,
      "killer": 2910,
      "entry": 2911,
      "vehic": 2912,
      "whate": 2913,
      "trick": 2914,
      "spec": 2915,
      "business": 2916,
      "undeni": 2917,
      "consistently": 2918,
      "whatever": 2919,
      "spielberg": 2920,
      "loss": 2921,
      "rey": 2922,
      "crazy": 2923,
      "relev": 2924,
      "aside": 2925,
      "empty": 2926,
      "fro": 2927,
      "kick": 2928,
      "tele": 2929,
      "achiev": 2930,
      "conclusion": 2931,
      "ives": 2932,
      "lon": 2933,
      "comedic": 2934,
      "thus": 2935,
      "gotten": 2936,
      "board": 2937,
      "tot": 2938,
      "ko": 2939,
      "recogn": 2940,
      "fle": 2941,
      "orm": 2942,
      "holds": 2943,
      "biggest": 2944,
      "load": 2945,
      "izes": 2946,
      "interested": 2947,
      "hearted": 2948,
      "stands": 2949,
      "eastwood": 2950,
      "ilt": 2951,
      "suit": 2952,
      "asts": 2953,
      "spark": 2954,
      "eth": 2955,
      "eventually": 2956,
      "aspect": 2957,
      "moun": 2958,
      "substance": 2959,
      "opportunity": 2960,
      "flow": 2961,
      "rever": 2962,
      "believable": 2963,
      "supporting": 2964,
      "bizar": 2965,
      "geor": 2966,
      "ament": 2967,
      "language": 2968,
      "prin": 2969,
      "center": 2970,
      "equal": 2971,
      "udes": 2972,
      "russ": 2973,
      "emer": 2974,
      "conve": 2975,
      "quirky": 2976,
      "society": 2977,
      "ets": 2978,
      "wasn": 2979,
      "soundtrack": 2980,
      "puts": 2981,
      "pacing": 2982,
      "00": 2983,
      "bon": 2984,
      "possibly": 2985,
      "spective": 2986,
      "particular": 2987,
      "whim": 2988,
      "compass": 2989,
      "indeed": 2990,
      "ius": 2991,
      "youth": 2992,
      "hang": 2993,
      "shy": 2994,
      "refreshing": 2995,
      "mir": 2996,
      "exhilar": 2997,
      "transc": 2998,
      "creates": 2999,
      "uted": 3000,
      "theme": 3001,
      "bear": 3002,
      "overly": 3003,
      "publ": 3004,
      "entially": 3005,
      "pract": 3006,
      "race": 3007,
      "aked": 3008,
      "ify": 3009,
      "stir": 3010,
      "street": 3011,
      "gut": 3012,
      "nast": 3013,
      "type": 3014,
      "sof": 3015,
      "spot": 3016,
      "gentle": 3017,
      "cgi": 3018,
      "fold": 3019,
      "itude": 3020,
      "gal": 3021,
      "casting": 3022,
      "ancho": 3023,
      "contrived": 3024,
      "wra": 3025,
      "allows": 3026,
      "grou": 3027,
      "realistic": 3028,
      "finale": 3029,
      "finish": 3030,
      "forts": 3031,
      "contra": 3032,
      "aware": 3033,
      "wouldn": 3034,
      "figure": 3035,
      "atory": 3036,
      "dread": 3037,
      "dramat": 3038,
      "ilities": 3039,
      "magn": 3040,
      "beginning": 3041,
      "gged": 3042,
      "popcorn": 3043,
      "hill": 3044,
      "richard": 3045,
      "begins": 3046,
      "thom": 3047,
      "ank": 3048,
      "places": 3049,
      "climax": 3050,
      "saga": 3051,
      "appear": 3052,
      "depend": 3053,
      "finest": 3054,
      "bizarre": 3055,
      "dry": 3056,
      "vidu": 3057,
      "individu": 3058,
      "captiv": 3059,
      "bru": 3060,
      "wonderfully": 3061,
      "increas": 3062,
      "essential": 3063,
      "90": 3064,
      "credits": 3065,
      "fli": 3066,
      "empts": 3067,
      "commentary": 3068,
      "card": 3069,
      "root": 3070,
      "company": 3071,
      "conflict": 3072,
      "hate": 3073,
      "angel": 3074,
      "bio": 3075,
      "comput": 3076,
      "ano": 3077,
      "execution": 3078,
      "ston": 3079,
      "bat": 3080,
      "jon": 3081,
      "slo": 3082,
      "attempts": 3083,
      "scale": 3084,
      "sav": 3085,
      "provoking": 3086,
      "knock": 3087,
      "accept": 3088,
      "purpose": 3089,
      "loses": 3090,
      "totally": 3091,
      "mediocre": 3092,
      "york": 3093,
      "wed": 3094,
      "efforts": 3095,
      "tragic": 3096,
      "relationships": 3097,
      "pictures": 3098,
      "missed": 3099,
      "manner": 3100,
      "news": 3101,
      "ann": 3102,
      "realism": 3103,
      "promise": 3104,
      "national": 3105,
      "relig": 3106,
      "pitch": 3107,
      "oh": 3108,
      "anderson": 3109,
      "frequently": 3110,
      "resol": 3111,
      "protagonist": 3112,
      "popular": 3113,
      "eff": 3114,
      "stem": 3115,
      "essentially": 3116,
      "cry": 3117,
      "3d": 3118,
      "deft": 3119,
      "shif": 3120,
      "explos": 3121,
      "bers": 3122,
      "public": 3123,
      "loving": 3124,
      "arring": 3125,
      "week": 3126,
      "oty": 3127,
      "render": 3128,
      "handed": 3129,
      "rate": 3130,
      "profess": 3131,
      "complicated": 3132,
      "chant": 3133,
      "directorial": 3134,
      "pretent": 3135,
      "enjoyed": 3136,
      "ived": 3137,
      "ded": 3138,
      "nostalgia": 3139,
      "cade": 3140,
      "tun": 3141,
      "minor": 3142,
      "blue": 3143,
      "ishes": 3144,
      "za": 3145,
      "evit": 3146,
      "paint": 3147,
      "pull": 3148,
      "hitchcock": 3149,
      "travel": 3150,
      "martin": 3151,
      "ario": 3152,
      "appreciate": 3153,
      "loved": 3154,
      "qual": 3155,
      "shallow": 3156,
      "genius": 3157,
      "structure": 3158,
      "vehicle": 3159,
      "ument": 3160,
      "itted": 3161,
      "ision": 3162,
      "current": 3163,
      "slapstick": 3164,
      "ders": 3165,
      "esy": 3166,
      "executed": 3167,
      "wis": 3168,
      "creating": 3169,
      "inevit": 3170,
      "gritty": 3171,
      "runs": 3172,
      "brilliantly": 3173,
      "reward": 3174,
      "designed": 3175,
      "ya": 3176,
      "unsett": 3177,
      "bird": 3178,
      "alive": 3179,
      "romp": 3180,
      "aks": 3181,
      "commer": 3182,
      "estab": 3183,
      "comfortable": 3184,
      "supposed": 3185,
      "holiday": 3186,
      "common": 3187,
      "aes": 3188,
      "univers": 3189,
      "tradit": 3190,
      "songs": 3191,
      "episode": 3192,
      "establish": 3193,
      "gross": 3194,
      "shots": 3195,
      "sophistic": 3196,
      "screenwriter": 3197,
      "mend": 3198,
      "mac": 3199,
      "suffers": 3200,
      "results": 3201,
      "queen": 3202,
      "intellect": 3203,
      "lights": 3204,
      "tem": 3205,
      "admira": 3206,
      "furi": 3207,
      "achievement": 3208,
      "aston": 3209,
      "secret": 3210,
      "incredibly": 3211,
      "party": 3212,
      "dir": 3213,
      "techno": 3214,
      "cam": 3215,
      "development": 3216,
      "george": 3217,
      "baby": 3218,
      "food": 3219,
      "produced": 3220,
      "benef": 3221,
      "computer": 3222,
      "bes": 3223,
      "arri": 3224,
      "quis": 3225,
      "stere": 3226,
      "kins": 3227,
      "kers": 3228,
      "six": 3229,
      "remain": 3230,
      "mature": 3231,
      "sea": 3232,
      "empa": 3233,
      "capable": 3234,
      "zombie": 3235,
      "ander": 3236,
      "skin": 3237,
      "graphic": 3238,
      "prop": 3239,
      "luck": 3240,
      "waste": 3241,
      "cannot": 3242,
      "gle": 3243,
      "text": 3244,
      "distra": 3245,
      "lively": 3246,
      "ura": 3247,
      "13": 3248,
      "viscer": 3249,
      "mers": 3250,
      "magical": 3251,
      "rough": 3252,
      "gory": 3253,
      "lust": 3254,
      "stain": 3255,
      "speed": 3256,
      "says": 3257,
      "andering": 3258,
      "combination": 3259,
      "pretentious": 3260,
      "wol": 3261,
      "poster": 3262,
      "crack": 3263,
      "ec": 3264,
      "iel": 3265,
      "somewhere": 3266,
      "alan": 3267,
      "johnson": 3268,
      "jump": 3269,
      "drawn": 3270,
      "loose": 3271,
      "exhilarating": 3272,
      "viously": 3273,
      "provide": 3274,
      "offering": 3275,
      "labor": 3276,
      "sleep": 3277,
      "excit": 3278,
      "wide": 3279,
      "ey": 3280,
      "nom": 3281,
      "rical": 3282,
      "rote": 3283,
      "rence": 3284,
      "stereoty": 3285,
      "happen": 3286,
      "editing": 3287,
      "anno": 3288,
      "ager": 3289,
      "bell": 3290,
      "west": 3291,
      "mou": 3292,
      "sadly": 3293,
      "199": 3294,
      "tarant": 3295,
      "illy": 3296,
      "mesmer": 3297,
      "showing": 3298,
      "priv": 3299,
      "deriv": 3300,
      "bum": 3301,
      "install": 3302,
      "demonstr": 3303,
      "zer": 3304,
      "longer": 3305,
      "sequence": 3306,
      "ku": 3307,
      "revol": 3308,
      "incredible": 3309,
      "plaus": 3310,
      "bleak": 3311,
      "identity": 3312,
      "dled": 3313,
      "suspenseful": 3314,
      "exploration": 3315,
      "rhy": 3316,
      "syn": 3317,
      "tarantino": 3318,
      "snap": 3319,
      "blend": 3320,
      "nightma": 3321,
      "adoles": 3322,
      "pret": 3323,
      "affection": 3324,
      "unfold": 3325,
      "fied": 3326,
      "goofy": 3327,
      "artistic": 3328,
      "bomb": 3329,
      "bene": 3330,
      "focused": 3331,
      "mental": 3332,
      "appears": 3333,
      "claim": 3334,
      "scors": 3335,
      "spar": 3336,
      "built": 3337,
      "target": 3338,
      "idi": 3339,
      "coherent": 3340,
      "endearing": 3341,
      "observ": 3342,
      "aud": 3343,
      "cheer": 3344,
      "group": 3345,
      "scorsese": 3346,
      "umin": 3347,
      "meant": 3348,
      "lazy": 3349,
      "territ": 3350,
      "apparen": 3351,
      "personality": 3352,
      "increasingly": 3353,
      "height": 3354,
      "haven": 3355,
      "ensity": 3356,
      "cliches": 3357,
      "technical": 3358,
      "further": 3359,
      "vy": 3360,
      "guess": 3361,
      "repetit": 3362,
      "vamp": 3363,
      "derivative": 3364,
      "sell": 3365,
      "iron": 3366,
      "agger": 3367,
      "deeper": 3368,
      "portrayal": 3369,
      "elect": 3370,
      "pers": 3371,
      "basic": 3372,
      "counter": 3373,
      "deb": 3374,
      "costum": 3375,
      "icking": 3376,
      "urban": 3377,
      "meets": 3378,
      "effectively": 3379,
      "haust": 3380,
      "nel": 3381,
      "determin": 3382,
      "uplift": 3383,
      "logic": 3384,
      "unfunny": 3385,
      "reminder": 3386,
      "fts": 3387,
      "exhaust": 3388,
      "hair": 3389,
      "getic": 3390,
      "credi": 3391,
      "ingen": 3392,
      "shine": 3393,
      "bigger": 3394,
      "ugly": 3395,
      "va": 3396,
      "zed": 3397,
      "check": 3398,
      "system": 3399,
      "drive": 3400,
      "heroes": 3401,
      "perspective": 3402,
      "leaving": 3403,
      "ung": 3404,
      "marks": 3405,
      "centric": 3406,
      "control": 3407,
      "scream": 3408,
      "conscious": 3409,
      "brought": 3410,
      "values": 3411,
      "multiple": 3412,
      "courage": 3413,
      "signific": 3414,
      "vert": 3415,
      "beneath": 3416,
      "hi": 3417,
      "answer": 3418,
      "territory": 3419,
      "farce": 3420,
      "hasn": 3421,
      "altern": 3422,
      "femin": 3423,
      "suggests": 3424,
      "rupt": 3425,
      "decade": 3426,
      "juli": 3427,
      "sandler": 3428,
      "bits": 3429,
      "famous": 3430,
      "capture": 3431,
      "typical": 3432,
      "unlikely": 3433,
      "introdu": 3434,
      "dazzling": 3435,
      "unsettling": 3436,
      "snow": 3437,
      "adam": 3438,
      "corpor": 3439,
      "dreams": 3440,
      "raid": 3441,
      "bored": 3442,
      "avail": 3443,
      "blast": 3444,
      "spirited": 3445,
      "enter": 3446,
      "doc": 3447,
      "saying": 3448,
      "ots": 3449,
      "adds": 3450,
      "lesson": 3451,
      "featuring": 3452,
      "wildly": 3453,
      "met": 3454,
      "woody": 3455,
      "atively": 3456,
      "gging": 3457,
      "general": 3458,
      "beha": 3459,
      "absorbing": 3460,
      "issue": 3461,
      "reck": 3462,
      "captivating": 3463,
      "nation": 3464,
      "lying": 3465,
      "whelming": 3466,
      "magnific": 3467,
      "turning": 3468,
      "continues": 3469,
      "appropri": 3470,
      "disappointment": 3471,
      "jim": 3472,
      "games": 3473,
      "wea": 3474,
      "caly": 3475,
      "reflect": 3476,
      "ases": 3477,
      "originality": 3478,
      "experiment": 3479,
      "compassion": 3480,
      "philo": 3481,
      "wat": 3482,
      "teenage": 3483,
      "pet": 3484,
      "belief": 3485,
      "commercial": 3486,
      "threat": 3487,
      "release": 3488,
      "tort": 3489,
      "trash": 3490,
      "nonetheless": 3491,
      "iling": 3492,
      "fab": 3493,
      "sar": 3494,
      "ington": 3495,
      "ians": 3496,
      "soap": 3497,
      "assem": 3498,
      "jackson": 3499,
      "bility": 3500,
      "hear": 3501,
      "ambition": 3502,
      "apocaly": 3503,
      "heal": 3504,
      "available": 3505,
      "rap": 3506,
      "embarr": 3507,
      "influ": 3508,
      "soci": 3509,
      "heartbreaking": 3510,
      "rew": 3511,
      "immedi": 3512,
      "excitement": 3513,
      "gloss": 3514,
      "seat": 3515,
      "tears": 3516,
      "ified": 3517,
      "embarrass": 3518,
      "mainstream": 3519,
      "fill": 3520,
      "gas": 3521,
      "nowhere": 3522,
      "landsc": 3523,
      "sick": 3524,
      "mann": 3525,
      "evol": 3526,
      "funct": 3527,
      "prison": 3528,
      "wan": 3529,
      "chase": 3530,
      "double": 3531,
      "eer": 3532,
      "sustain": 3533,
      "gid": 3534,
      "desire": 3535,
      "thank": 3536,
      "elle": 3537,
      "bag": 3538,
      "steven": 3539,
      "relevant": 3540,
      "11": 3541,
      "rhyth": 3542,
      "steve": 3543,
      "waiting": 3544,
      "storyline": 3545,
      "nicely": 3546,
      "generally": 3547,
      "clu": 3548,
      "pleasing": 3549,
      "ased": 3550,
      "intentions": 3551,
      "indust": 3552,
      "marri": 3553,
      "rad": 3554,
      "196": 3555,
      "format": 3556,
      "imagery": 3557,
      "shakes": 3558,
      "poet": 3559,
      "handsome": 3560,
      "outside": 3561,
      "page": 3562,
      "compar": 3563,
      "taut": 3564,
      "seemingly": 3565,
      "funniest": 3566,
      "exquis": 3567,
      "simpl": 3568,
      "redem": 3569,
      "ira": 3570,
      "guar": 3571,
      "devast": 3572,
      "init": 3573,
      "worked": 3574,
      "kevin": 3575,
      "cruel": 3576,
      "bow": 3577,
      "rell": 3578,
      "superior": 3579,
      "trek": 3580,
      "gay": 3581,
      "gry": 3582,
      "impression": 3583,
      "arm": 3584,
      "intensity": 3585,
      "myth": 3586,
      "mixed": 3587,
      "vig": 3588,
      "haw": 3589,
      "equally": 3590,
      "ami": 3591,
      "shocking": 3592,
      "building": 3593,
      "opera": 3594,
      "metaph": 3595,
      "office": 3596,
      "behavi": 3597,
      "pointless": 3598,
      "hab": 3599,
      "learn": 3600,
      "lyn": 3601,
      "devil": 3602,
      "mildly": 3603,
      "inch": 3604,
      "brave": 3605,
      "train": 3606,
      "sincere": 3607,
      "ties": 3608,
      "cynical": 3609,
      "serve": 3610,
      "graphed": 3611,
      "meet": 3612,
      "display": 3613,
      "total": 3614,
      "teach": 3615,
      "minded": 3616,
      "cence": 3617,
      "sey": 3618,
      "restra": 3619,
      "directing": 3620,
      "smile": 3621,
      "rowing": 3622,
      "superfic": 3623,
      "keeping": 3624,
      "chop": 3625,
      "sham": 3626,
      "intended": 3627,
      "south": 3628,
      "quietly": 3629,
      "arc": 3630,
      "friendly": 3631,
      "account": 3632,
      "aesthetic": 3633,
      "victim": 3634,
      "nasty": 3635,
      "sexy": 3636,
      "possess": 3637,
      "talents": 3638,
      "arts": 3639,
      "bree": 3640,
      "philosoph": 3641,
      "situation": 3642,
      "som": 3643,
      "sly": 3644,
      "chuck": 3645,
      "promising": 3646,
      "delivering": 3647,
      "situations": 3648,
      "visceral": 3649,
      "iled": 3650,
      "basically": 3651,
      "gust": 3652,
      "pleasures": 3653,
      "slice": 3654,
      "scr": 3655,
      "cheesy": 3656,
      "fing": 3657,
      "fable": 3658,
      "share": 3659,
      "williams": 3660,
      "trilo": 3661,
      "escape": 3662,
      "oddly": 3663,
      "accomplished": 3664,
      "terrifying": 3665,
      "contains": 3666,
      "follows": 3667,
      "spell": 3668,
      "goers": 3669,
      "clum": 3670,
      "slee": 3671,
      "glim": 3672,
      "sport": 3673,
      "chore": 3674,
      "struggle": 3675,
      "favorite": 3676,
      "enthus": 3677,
      "enthusi": 3678,
      "bone": 3679,
      "bay": 3680,
      "nich": 3681,
      "unusual": 3682,
      "homage": 3683,
      "evid": 3684,
      "tire": 3685,
      "touches": 3686,
      "understanding": 3687,
      "warming": 3688,
      "builds": 3689,
      "hers": 3690,
      "fav": 3691,
      "spiritual": 3692,
      "inner": 3693,
      "80s": 3694,
      "failure": 3695,
      "colorful": 3696,
      "marriage": 3697,
      "redu": 3698,
      "lier": 3699,
      "depiction": 3700,
      "proper": 3701,
      "thes": 3702,
      "access": 3703,
      "dress": 3704,
      "deserve": 3705,
      "nichol": 3706,
      "monsters": 3707,
      "similar": 3708,
      "messy": 3709,
      "lean": 3710,
      "vibr": 3711,
      "went": 3712,
      "decades": 3713,
      "buddy": 3714,
      "hack": 3715,
      "gover": 3716,
      "precise": 3717,
      "giant": 3718,
      "becoming": 3719,
      "moon": 3720,
      "vict": 3721,
      "boot": 3722,
      "bris": 3723,
      "tick": 3724,
      "iler": 3725,
      "satisfy": 3726,
      "insightful": 3727,
      "traditional": 3728,
      "burton": 3729,
      "los": 3730,
      "phil": 3731,
      "crude": 3732,
      "liked": 3733,
      "routine": 3734,
      "television": 3735,
      "offensive": 3736,
      "grap": 3737,
      "addition": 3738,
      "heads": 3739,
      "ounding": 3740,
      "eness": 3741,
      "worthwhile": 3742,
      "vac": 3743,
      "satir": 3744,
      "bang": 3745,
      "minim": 3746,
      "famil": 3747,
      "laughter": 3748,
      "delivered": 3749,
      "inform": 3750,
      "reveals": 3751,
      "pon": 3752,
      "grat": 3753,
      "poorly": 3754,
      "uity": 3755,
      "celebration": 3756,
      "progress": 3757,
      "veness": 3758,
      "rip": 3759,
      "ert": 3760,
      "carry": 3761,
      "breathtaking": 3762,
      "tear": 3763,
      "resem": 3764,
      "manage": 3765,
      "bour": 3766,
      "element": 3767,
      "spend": 3768,
      "english": 3769,
      "apes": 3770,
      "remo": 3771,
      "overlong": 3772,
      "smoo": 3773,
      "showcase": 3774,
      "trilogy": 3775,
      "12": 3776,
      "creation": 3777,
      "treatment": 3778,
      "lady": 3779,
      "glee": 3780,
      "base": 3781,
      "sitcom": 3782,
      "indu": 3783,
      "path": 3784,
      "olly": 3785,
      "chapter": 3786,
      "stuck": 3787,
      "author": 3788,
      "painful": 3789,
      "painfully": 3790,
      "clar": 3791,
      "howard": 3792,
      "thrillers": 3793,
      "rum": 3794,
      "argu": 3795,
      "equival": 3796,
      "villain": 3797,
      "constructed": 3798,
      "soft": 3799,
      "drop": 3800,
      "iche": 3801,
      "igno": 3802,
      "dick": 3803,
      "occasional": 3804,
      "daring": 3805,
      "gers": 3806,
      "towards": 3807,
      "posit": 3808,
      "putting": 3809,
      "comprom": 3810,
      "stein": 3811,
      "slowly": 3812,
      "sentimentality": 3813,
      "icient": 3814,
      "clun": 3815,
      "parody": 3816,
      "guilty": 3817,
      "sophisticated": 3818,
      "lame": 3819,
      "badly": 3820,
      "surely": 3821,
      "faces": 3822,
      "chilling": 3823,
      "icts": 3824,
      "price": 3825,
      "sequels": 3826,
      "gem": 3827,
      "mash": 3828,
      "outing": 3829,
      "remarkably": 3830,
      "ctic": 3831,
      "spoof": 3832,
      "nonsense": 3833,
      "broken": 3834,
      "sod": 3835,
      "nightmare": 3836,
      "iveness": 3837,
      "rings": 3838,
      "forgotten": 3839,
      "filmed": 3840,
      "funnier": 3841,
      "jum": 3842,
      "def": 3843,
      "jason": 3844,
      "fighting": 3845,
      "uma": 3846,
      "convers": 3847,
      "speak": 3848,
      "harry": 3849,
      "knight": 3850,
      "proof": 3851,
      "literally": 3852,
      "witch": 3853,
      "ancy": 3854,
      "winner": 3855,
      "sketch": 3856,
      "levels": 3857,
      "fox": 3858,
      "examination": 3859,
      "million": 3860,
      "carries": 3861,
      "challenging": 3862,
      "iff": 3863,
      "trust": 3864,
      "playful": 3865,
      "bottom": 3866,
      "aky": 3867,
      "machine": 3868,
      "inf": 3869,
      "nold": 3870,
      "ulous": 3871,
      "liber": 3872,
      "timely": 3873,
      "crash": 3874,
      "plotting": 3875,
      "installment": 3876,
      "equivalent": 3877,
      "nut": 3878,
      "grade": 3879,
      "assured": 3880,
      "struggles": 3881,
      "desperate": 3882,
      "inspirational": 3883,
      "rat": 3884,
      "joe": 3885,
      "commit": 3886,
      "trouble": 3887,
      "lud": 3888,
      "glass": 3889,
      "herself": 3890,
      "stated": 3891,
      "older": 3892,
      "outstanding": 3893,
      "tropes": 3894,
      "candy": 3895,
      "survival": 3896,
      "dirty": 3897,
      "endless": 3898,
      "fish": 3899,
      "ches": 3900,
      "nes": 3901,
      "preposter": 3902,
      "distract": 3903,
      "asher": 3904,
      "ched": 3905,
      "bob": 3906,
      "cage": 3907,
      "evo": 3908,
      "latter": 3909,
      "provid": 3910,
      "necessarily": 3911,
      "outs": 3912,
      "convol": 3913,
      "anity": 3914,
      "cable": 3915,
      "dated": 3916,
      "clean": 3917,
      "alleg": 3918,
      "lovers": 3919,
      "knowing": 3920,
      "critic": 3921,
      "hid": 3922,
      "sensitive": 3923,
      "energetic": 3924,
      "universal": 3925,
      "starring": 3926,
      "notes": 3927,
      "deliber": 3928,
      "amid": 3929,
      "thos": 3930,
      "charisma": 3931,
      "context": 3932,
      "shakespe": 3933,
      "undeniably": 3934,
      "alex": 3935,
      "uplifting": 3936,
      "ience": 3937,
      "discover": 3938,
      "ibilities": 3939,
      "domin": 3940,
      "planet": 3941,
      "cup": 3942,
      "arth": 3943,
      "shed": 3944,
      "dimens": 3945,
      "clichés": 3946,
      "fits": 3947,
      "ideal": 3948,
      "reminds": 3949,
      "eyed": 3950,
      "statement": 3951,
      "rian": 3952,
      "poe": 3953,
      "took": 3954,
      "supernatural": 3955,
      "eccentric": 3956,
      "recor": 3957,
      "roy": 3958,
      "oked": 3959,
      "screw": 3960,
      "inspiration": 3961,
      "superficial": 3962,
      "earlier": 3963,
      "devastating": 3964,
      "intr": 3965,
      "ryan": 3966,
      "laughing": 3967,
      "chronic": 3968,
      "books": 3969,
      "rick": 3970,
      "surround": 3971,
      "ose": 3972,
      "nuanced": 3973,
      "melancho": 3974,
      "econ": 3975,
      "preach": 3976,
      "individual": 3977,
      "shakespeare": 3978,
      "diver": 3979,
      "rede": 3980,
      "burst": 3981,
      "ingu": 3982,
      "proceed": 3983,
      "fred": 3984,
      "econom": 3985,
      "paper": 3986,
      "brief": 3987,
      "former": 3988,
      "rac": 3989,
      "actions": 3990,
      "gib": 3991,
      "harrowing": 3992,
      "washington": 3993,
      "obviously": 3994,
      "caut": 3995,
      "enchant": 3996,
      "surreal": 3997,
      "redemption": 3998,
      "growing": 3999,
      "app": 4000,
      "members": 4001,
      "confid": 4002,
      "sympathetic": 4003,
      "stirring": 4004,
      "raunch": 4005,
      "slasher": 4006,
      "emphas": 4007,
      "civil": 4008,
      "melodramatic": 4009,
      "choice": 4010,
      "pulls": 4011,
      "ultimate": 4012,
      "hollow": 4013,
      "alling": 4014,
      "scenario": 4015,
      "presented": 4016,
      "twisted": 4017,
      "outrageous": 4018,
      "bringing": 4019,
      "ambig": 4020,
      "sole": 4021,
      "shouldn": 4022,
      "seven": 4023,
      "grav": 4024,
      "audac": 4025,
      "ix": 4026,
      "agree": 4027,
      "younger": 4028,
      "angle": 4029,
      "darkness": 4030,
      "195": 4031,
      "awes": 4032,
      "oks": 4033,
      "sill": 4034,
      "rousing": 4035,
      "hes": 4036,
      "tales": 4037,
      "cruise": 4038,
      "choices": 4039,
      "confident": 4040,
      "silliness": 4041,
      "ellar": 4042,
      "fault": 4043,
      "christop": 4044,
      "hil": 4045,
      "convoluted": 4046,
      "magnificent": 4047,
      "grant": 4048,
      "depressing": 4049,
      "daugh": 4050,
      "irresist": 4051,
      "realized": 4052,
      "hugh": 4053,
      "professional": 4054,
      "ease": 4055,
      "uninspired": 4056,
      "drug": 4057,
      "frightening": 4058,
      "anda": 4059,
      "media": 4060,
      "bunch": 4061,
      "yarn": 4062,
      "onto": 4063,
      "hyper": 4064,
      "charismatic": 4065,
      "destru": 4066,
      "30": 4067,
      "ifying": 4068,
      "ludic": 4069,
      "jap": 4070,
      "mort": 4071,
      "flicks": 4072,
      "momentum": 4073,
      "elessly": 4074,
      "pick": 4075,
      "independ": 4076,
      "fles": 4077,
      "elegant": 4078,
      "interview": 4079,
      "mike": 4080,
      "dynamic": 4081,
      "pin": 4082,
      "puzz": 4083,
      "preh": 4084,
      "ultane": 4085,
      "atmospher": 4086,
      "inted": 4087,
      "admirable": 4088,
      "sed": 4089,
      "unnecessary": 4090,
      "engage": 4091,
      "simultane": 4092,
      "morality": 4093,
      "straightforward": 4094,
      "astonishing": 4095,
      "itary": 4096,
      "realize": 4097,
      "preposterous": 4098,
      "wing": 4099,
      "exceptional": 4100,
      "held": 4101,
      "exploitation": 4102,
      "cow": 4103,
      "qua": 4104,
      "bid": 4105,
      "glory": 4106,
      "evoc": 4107,
      "ns": 4108,
      "disappointed": 4109,
      "lev": 4110,
      "complexity": 4111,
      "developed": 4112,
      "send": 4113,
      "gender": 4114,
      "mayhem": 4115,
      "dogs": 4116,
      "fluff": 4117,
      "golden": 4118,
      "metaphor": 4119,
      "omen": 4120,
      "mesmerizing": 4121,
      "toy": 4122,
      "calcul": 4123,
      "sacri": 4124,
      "illa": 4125,
      "behavior": 4126,
      "japan": 4127,
      "spent": 4128,
      "ici": 4129,
      "pier": 4130,
      "sion": 4131,
      "performers": 4132,
      "caper": 4133,
      "measure": 4134,
      "rul": 4135,
      "ledge": 4136,
      "explores": 4137,
      "conceived": 4138,
      "subjects": 4139,
      "warmth": 4140,
      "various": 4141,
      "references": 4142,
      "impro": 4143,
      "christopher": 4144,
      "jaw": 4145,
      "lam": 4146,
      "tremend": 4147,
      "trade": 4148,
      "smooth": 4149,
      "confused": 4150,
      "robin": 4151,
      "dden": 4152,
      "stephen": 4153,
      "beats": 4154,
      "wilder": 4155,
      "jam": 4156,
      "immick": 4157,
      "satur": 4158,
      "darkly": 4159,
      "grief": 4160,
      "gimmick": 4161,
      "tread": 4162,
      "wears": 4163,
      "subvers": 4164,
      "batman": 4165,
      "distinct": 4166,
      "ax": 4167,
      "fool": 4168,
      "brow": 4169,
      "strict": 4170,
      "potter": 4171,
      "award": 4172,
      "amalan": 4173,
      "crisis": 4174,
      "vigor": 4175,
      "melancholy": 4176,
      "soldi": 4177,
      "lou": 4178,
      "oli": 4179,
      "blind": 4180,
      "lawrence": 4181,
      "educ": 4182,
      "childhood": 4183,
      "choreo": 4184,
      "nevertheless": 4185,
      "damn": 4186,
      "eur": 4187,
      "gig": 4188,
      "unforgettable": 4189,
      "adolescent": 4190,
      "shyamalan": 4191,
      "commun": 4192,
      "egr": 4193,
      "bittersweet": 4194,
      "likeable": 4195,
      "shines": 4196,
      "bother": 4197,
      "wallow": 4198,
      "arg": 4199,
      "reasons": 4200,
      "religious": 4201,
      "stellar": 4202,
      "afraid": 4203,
      "firm": 4204,
      "collection": 4205,
      "lear": 4206,
      "mechan": 4207,
      "phy": 4208,
      "vs": 4209,
      "marsh": 4210,
      "annoying": 4211,
      "irrit": 4212,
      "buy": 4213,
      "episod": 4214,
      "journal": 4215,
      "hugely": 4216,
      "awesome": 4217,
      "object": 4218,
      "competent": 4219,
      "auto": 4220,
      "ald": 4221,
      "strangely": 4222,
      "stays": 4223,
      "industry": 4224,
      "boasts": 4225,
      "blu": 4226,
      "ples": 4227,
      "parano": 4228,
      "heist": 4229,
      "respon": 4230,
      "dil": 4231,
      "russell": 4232,
      "15": 4233,
      "answers": 4234,
      "cath": 4235,
      "mention": 4236,
      "concerned": 4237,
      "poetic": 4238,
      "dar": 4239,
      "blunt": 4240,
      "vulner": 4241,
      "teens": 4242,
      "drag": 4243,
      "link": 4244,
      "neat": 4245,
      "proud": 4246,
      "wife": 4247,
      "doom": 4248,
      "usive": 4249,
      "police": 4250,
      "afric": 4251,
      "superbly": 4252,
      "immers": 4253,
      "technology": 4254,
      "animal": 4255,
      "simultaneously": 4256,
      "beth": 4257,
      "hoping": 4258,
      "xic": 4259,
      "suck": 4260,
      "nick": 4261,
      "capital": 4262,
      "achieves": 4263,
      "bergh": 4264,
      "cuts": 4265,
      "!\"": 4266,
      "nostalgic": 4267,
      "dun": 4268,
      "organ": 4269,
      "rope": 4270,
      "soder": 4271,
      "heroine": 4272,
      "helps": 4273,
      "transcend": 4274,
      "brisk": 4275,
      "aking": 4276,
      "constantly": 4277,
      "repetitive": 4278,
      "difference": 4279,
      "dash": 4280,
      "digital": 4281,
      "wasted": 4282,
      "uber": 4283,
      "relentless": 4284,
      "rand": 4285,
      "consistent": 4286,
      "status": 4287,
      "image": 4288,
      "rant": 4289,
      "door": 4290,
      "thinks": 4291,
      "cali": 4292,
      "osity": 4293,
      "heavi": 4294,
      "rewarding": 4295,
      "soderbergh": 4296,
      "onscreen": 4297,
      "plausible": 4298,
      "wilson": 4299,
      "substant": 4300,
      "demo": 4301,
      "estic": 4302,
      "considering": 4303,
      "nobody": 4304,
      "innov": 4305,
      "ifer": 4306,
      "via": 4307,
      "wrought": 4308,
      "clichs": 4309,
      "gam": 4310,
      "rain": 4311,
      "worn": 4312,
      "understated": 4313,
      "committed": 4314,
      "intrigue": 4315,
      "40": 4316,
      "faithful": 4317,
      "roc": 4318,
      "crew": 4319,
      "confusing": 4320,
      "tend": 4321,
      "relatively": 4322,
      "stum": 4323,
      "disco": 4324,
      "integr": 4325,
      "happened": 4326,
      "neg": 4327,
      "gradu": 4328,
      "daniel": 4329,
      "matters": 4330,
      "gangster": 4331,
      "albe": 4332,
      "70s": 4333,
      "amor": 4334,
      "caught": 4335,
      "acts": 4336,
      "throwback": 4337,
      "aspects": 4338,
      "corporate": 4339,
      "pir": 4340,
      "demands": 4341,
      "mary": 4342,
      "cts": 4343,
      "grab": 4344,
      "scope": 4345,
      "conventions": 4346,
      "gift": 4347,
      "table": 4348,
      "vital": 4349,
      "inson": 4350,
      "subli": 4351,
      "following": 4352,
      "rie": 4353,
      "tz": 4354,
      "anx": 4355,
      "ache": 4356,
      "idio": 4357,
      "pit": 4358,
      "returns": 4359,
      "veter": 4360,
      "colour": 4361,
      "riot": 4362,
      "flesh": 4363,
      "thology": 4364,
      "holes": 4365,
      "existence": 4366,
      "wholly": 4367,
      "depart": 4368,
      "muddled": 4369,
      "vampire": 4370,
      "oz": 4371,
      "range": 4372,
      "uncomfortable": 4373,
      "degre": 4374,
      "belo": 4375,
      "refreshingly": 4376,
      "albeit": 4377,
      "goth": 4378,
      "sweep": 4379,
      "headed": 4380,
      "chick": 4381,
      "larger": 4382,
      "tradition": 4383,
      "enthr": 4384,
      "sher": 4385,
      "belong": 4386,
      "pses": 4387,
      "flair": 4388,
      "aimed": 4389,
      "dangerous": 4390,
      "aims": 4391,
      "wedding": 4392,
      "downright": 4393,
      "patience": 4394,
      "stakes": 4395,
      "asive": 4396,
      "collect": 4397,
      "intellectual": 4398,
      "bore": 4399,
      "community": 4400,
      "blown": 4401,
      "abra": 4402,
      "myself": 4403,
      "simplistic": 4404,
      "ludicrous": 4405,
      "heard": 4406,
      "fier": 4407,
      "21": 4408,
      "bite": 4409,
      "connection": 4410,
      "hearts": 4411,
      "subtlety": 4412,
      "enorm": 4413,
      "breezy": 4414,
      "spring": 4415,
      "emplo": 4416,
      "tted": 4417,
      "command": 4418,
      "misses": 4419,
      "cate": 4420,
      "freed": 4421,
      "sitting": 4422,
      "vast": 4423,
      "shop": 4424,
      "stom": 4425,
      "leck": 4426,
      "vibrant": 4427,
      "impe": 4428,
      "importance": 4429,
      "stereotypes": 4430,
      "knew": 4431,
      "angry": 4432,
      "stall": 4433,
      "plots": 4434,
      "distingu": 4435,
      "whom": 4436,
      "grapher": 4437,
      "ahead": 4438,
      "icon": 4439,
      "beloved": 4440,
      "netic": 4441,
      "masterful": 4442,
      "offbeat": 4443,
      "immense": 4444,
      "retro": 4445,
      "considerable": 4446,
      "specific": 4447,
      "compreh": 4448,
      "izz": 4449,
      "buck": 4450,
      "phen": 4451,
      "desperately": 4452,
      "uit": 4453,
      "illumin": 4454,
      "feelings": 4455,
      "clunky": 4456,
      "bir": 4457,
      "suspect": 4458,
      "expecting": 4459,
      "stock": 4460,
      "percept": 4461,
      "subversive": 4462,
      "jenn": 4463,
      "mut": 4464,
      "empathy": 4465,
      "saving": 4466,
      "techni": 4467,
      "icy": 4468,
      "meaningful": 4469,
      "animals": 4470,
      "compan": 4471,
      "closer": 4472,
      "humorous": 4473,
      "wry": 4474,
      "affleck": 4475,
      "captain": 4476,
      "mccar": 4477,
      "inevitable": 4478,
      "ponder": 4479,
      "sedu": 4480,
      "anch": 4481,
      "existential": 4482,
      "successfully": 4483,
      "carefully": 4484,
      "expertly": 4485,
      "landscape": 4486,
      "wrench": 4487,
      "lifel": 4488,
      "conj": 4489,
      "aron": 4490,
      "compens": 4491,
      "glorious": 4492,
      "lose": 4493,
      "lived": 4494,
      "aven": 4495,
      "ites": 4496,
      "packs": 4497,
      "hay": 4498,
      "darker": 4499,
      "jennifer": 4500,
      "mccarthy": 4501,
      "moviegoers": 4502,
      "winter": 4503,
      "mine": 4504,
      "iles": 4505,
      "ishly": 4506,
      "horse": 4507,
      "sap": 4508,
      "standards": 4509,
      "manipulative": 4510,
      "revolution": 4511,
      "?\"": 4512,
      "roph": 4513,
      "limited": 4514,
      "authenticity": 4515,
      "caution": 4516,
      "fitting": 4517,
      "mod": 4518,
      "attitude": 4519,
      "eson": 4520,
      "discus": 4521,
      "christian": 4522,
      "relentlessly": 4523,
      "constant": 4524,
      "charms": 4525,
      "daughter": 4526,
      "steal": 4527,
      "ptic": 4528,
      "silent": 4529,
      "leap": 4530,
      "unpleasant": 4531,
      "notch": 4532,
      "pulp": 4533,
      "calls": 4534,
      "abor": 4535,
      "motiv": 4536,
      "hurt": 4537,
      "mouth": 4538,
      "players": 4539,
      "andon": 4540,
      "fix": 4541,
      "movement": 4542,
      "feet": 4543,
      "seemed": 4544,
      "embrace": 4545,
      "eight": 4546,
      "dramas": 4547,
      "dancing": 4548,
      "admire": 4549,
      "austral": 4550,
      "envir": 4551,
      "accent": 4552,
      "miller": 4553,
      "rules": 4554,
      "scare": 4555,
      "ferrell": 4556,
      "ti": 4557,
      "gger": 4558,
      "twil": 4559,
      "harm": 4560,
      "misfire": 4561,
      "falling": 4562,
      "rises": 4563,
      "edited": 4564,
      "ium": 4565,
      "betra": 4566,
      "indulgent": 4567,
      "weren": 4568,
      "allenge": 4569,
      "false": 4570,
      "fif": 4571,
      "pson": 4572,
      "challenge": 4573,
      "model": 4574,
      "unless": 4575,
      "extended": 4576,
      "combines": 4577,
      "twilight": 4578,
      "dign": 4579,
      "letting": 4580,
      "irony": 4581,
      "expectedly": 4582,
      "rocky": 4583,
      "murphy": 4584,
      "wins": 4585,
      "erotic": 4586,
      "meditation": 4587,
      "mirror": 4588,
      "precious": 4589,
      "hart": 4590,
      "improve": 4591,
      "dimensional": 4592,
      "atmospheric": 4593,
      "sublime": 4594,
      "wright": 4595,
      "anne": 4596,
      "advan": 4597,
      "serving": 4598,
      "payoff": 4599,
      "revealing": 4600,
      "ked": 4601,
      "insult": 4602,
      "feminist": 4603,
      "heavily": 4604,
      "pulse": 4605,
      "wack": 4606,
      "infect": 4607,
      "iconic": 4608,
      "sudden": 4609,
      "hob": 4610,
      "meat": 4611,
      "suffer": 4612,
      "steps": 4613,
      "pleaser": 4614,
      "positive": 4615,
      "jac": 4616,
      "forces": 4617,
      "suffering": 4618,
      "cell": 4619,
      "depp": 4620,
      "refle": 4621,
      "kept": 4622,
      "letter": 4623,
      "terribly": 4624,
      "virtually": 4625,
      "separ": 4626,
      "paris": 4627,
      "clumsy": 4628,
      "fate": 4629,
      "sensational": 4630,
      "guarante": 4631,
      "ws": 4632,
      "toler": 4633,
      "adventures": 4634,
      "stuffed": 4635,
      "thread": 4636,
      "legacy": 4637,
      "martial": 4638,
      "satirical": 4639,
      "dust": 4640,
      "pion": 4641,
      "potentially": 4642,
      "theatrical": 4643,
      "represent": 4644,
      "greater": 4645,
      "cycl": 4646,
      "ators": 4647,
      "folks": 4648,
      "sis": 4649,
      "aggress": 4650,
      "released": 4651,
      "corrupt": 4652,
      "remote": 4653,
      "scatter": 4654,
      "prep": 4655,
      "placed": 4656,
      "redeem": 4657,
      "visit": 4658,
      "haunted": 4659,
      "sober": 4660,
      "lessons": 4661,
      "overcome": 4662,
      "steam": 4663,
      "changes": 4664,
      "eling": 4665,
      "....": 4666,
      "curious": 4667,
      "looked": 4668,
      "icate": 4669,
      "contain": 4670,
      "island": 4671,
      "host": 4672,
      "environ": 4673,
      "dv": 4674,
      "gin": 4675,
      "pool": 4676,
      "corny": 4677,
      "documentaries": 4678,
      "explore": 4679,
      "devot": 4680,
      "grows": 4681,
      "furious": 4682,
      "awe": 4683,
      "enberg": 4684,
      "junk": 4685,
      "sides": 4686,
      "vable": 4687,
      "stale": 4688,
      "fierce": 4689,
      "nie": 4690,
      "pts": 4691,
      "persu": 4692,
      "ski": 4693,
      "thomas": 4694,
      "boun": 4695,
      "reasonably": 4696,
      "techn": 4697,
      "treas": 4698,
      "delicate": 4699,
      "jar": 4700,
      "explic": 4701,
      "photography": 4702,
      "crafts": 4703,
      "brad": 4704,
      "gment": 4705,
      "powers": 4706,
      "write": 4707,
      "faced": 4708,
      "assa": 4709,
      "buff": 4710,
      "campy": 4711,
      "loaded": 4712,
      "impec": 4713,
      "phenomen": 4714,
      "enced": 4715,
      "ligh": 4716,
      "intention": 4717,
      "ique": 4718,
      "streep": 4719,
      "criminal": 4720,
      "reaches": 4721,
      "50": 4722,
      "az": 4723,
      "anal": 4724,
      "abs": 4725,
      "testament": 4726,
      "apparently": 4727,
      "atable": 4728,
      "maintain": 4729,
      "sensibility": 4730,
      "gordon": 4731,
      "pper": 4732,
      "scra": 4733,
      "irresistible": 4734,
      "sloppy": 4735,
      "club": 4736,
      "optim": 4737,
      "rub": 4738,
      "**": 4739,
      "vague": 4740,
      "ids": 4741,
      "breaks": 4742,
      "minimal": 4743,
      "illustr": 4744,
      "tail": 4745,
      "background": 4746,
      "jan": 4747,
      "minds": 4748,
      "memories": 4749,
      "wanting": 4750,
      "jol": 4751,
      "forever": 4752,
      "spite": 4753,
      "origin": 4754,
      "brown": 4755,
      "witness": 4756,
      "metic": 4757,
      "passionate": 4758,
      "aline": 4759,
      "tay": 4760,
      "entertained": 4761,
      "silence": 4762,
      "bodies": 4763,
      "considered": 4764,
      "sque": 4765,
      "semi": 4766,
      "dete": 4767,
      "ateur": 4768,
      "poetry": 4769,
      "gos": 4770,
      "revelation": 4771,
      "wolf": 4772,
      "jes": 4773,
      "border": 4774,
      "sorry": 4775,
      "honesty": 4776,
      "ech": 4777,
      "pable": 4778,
      "poses": 4779,
      "splen": 4780,
      "limit": 4781,
      "promises": 4782,
      "expression": 4783,
      "families": 4784,
      "confidence": 4785,
      "100": 4786,
      "hat": 4787,
      "unexpectedly": 4788,
      "circum": 4789,
      "benefits": 4790,
      "tiresome": 4791,
      "nau": 4792,
      "managed": 4793,
      "praise": 4794,
      "fights": 4795,
      "aton": 4796,
      "exuber": 4797,
      "emma": 4798,
      "sumpt": 4799,
      "earned": 4800,
      "iced": 4801,
      "rendered": 4802,
      "dd": 4803,
      "elic": 4804,
      "tched": 4805,
      "sympathy": 4806,
      "scenery": 4807,
      "singer": 4808,
      "mindless": 4809,
      "demonstrates": 4810,
      "elabor": 4811,
      "adren": 4812,
      "rolling": 4813,
      "dut": 4814,
      "blan": 4815,
      "porn": 4816,
      "tones": 4817,
      "edgy": 4818,
      "diverting": 4819,
      "vice": 4820,
      "rein": 4821,
      "died": 4822,
      "conv": 4823,
      "stark": 4824,
      "wee": 4825,
      "hyster": 4826,
      "natured": 4827,
      "rober": 4828,
      "odds": 4829,
      "charlie": 4830,
      "eat": 4831,
      "ularly": 4832,
      "quent": 4833,
      "creativity": 4834,
      "richly": 4835,
      "degree": 4836,
      "freedom": 4837,
      "mich": 4838,
      "ture": 4839,
      "alle": 4840,
      "practically": 4841,
      "everybody": 4842,
      "greatness": 4843,
      "strikes": 4844,
      "urally": 4845,
      "coen": 4846,
      "angers": 4847,
      "cynic": 4848,
      "correct": 4849,
      "symbol": 4850,
      "appropriate": 4851,
      "cingly": 4852,
      "arrest": 4853,
      "rhythm": 4854,
      "cit": 4855,
      "pity": 4856,
      "staged": 4857,
      "guided": 4858,
      "raunchy": 4859,
      "stewart": 4860,
      "devoid": 4861,
      "square": 4862,
      "meth": 4863,
      "gifted": 4864,
      "chaos": 4865,
      "conviction": 4866,
      "significant": 4867,
      "makers": 4868,
      "exists": 4869,
      "dramatically": 4870,
      "splendid": 4871,
      "hl": 4872,
      "ishment": 4873,
      "acade": 4874,
      "deftly": 4875,
      "fict": 4876,
      "cooper": 4877,
      "wrenching": 4878,
      "etc": 4879,
      "cars": 4880,
      "timing": 4881,
      "heaven": 4882,
      "inducing": 4883,
      "esque": 4884,
      "chest": 4885,
      "wear": 4886,
      "undance": 4887,
      "month": 4888,
      "regre": 4889,
      "cia": 4890,
      "accessible": 4891,
      "observed": 4892,
      "pola": 4893,
      "instin": 4894,
      "heights": 4895,
      "wreck": 4896,
      "wondering": 4897,
      "critical": 4898,
      "sparks": 4899,
      "cid": 4900,
      "cash": 4901,
      "harr": 4902,
      "stur": 4903,
      "edges": 4904,
      "racy": 4905,
      "heartwarming": 4906,
      "zzy": 4907,
      "madness": 4908,
      "predecessors": 4909,
      "zero": 4910,
      "nine": 4911,
      "reboot": 4912,
      "iza": 4913,
      "fell": 4914,
      "incon": 4915,
      "highlight": 4916,
      "added": 4917,
      "brick": 4918,
      "pathos": 4919,
      "medy": 4920,
      "sees": 4921,
      "impressively": 4922,
      "shor": 4923,
      "collabor": 4924,
      "fuel": 4925,
      "dvd": 4926,
      "mum": 4927,
      "ritch": 4928,
      "davis": 4929,
      "brilliance": 4930,
      "busy": 4931,
      "ji": 4932,
      "horrible": 4933,
      "thed": 4934,
      "pays": 4935,
      "hanks": 4936,
      "critics": 4937,
      "japanese": 4938,
      "silver": 4939,
      "celebrity": 4940,
      "tat": 4941,
      "una": 4942,
      "llen": 4943,
      "capturing": 4944,
      "coppola": 4945,
      "ritchie": 4946,
      "leag": 4947,
      "beast": 4948,
      "performed": 4949,
      "riff": 4950,
      "ironic": 4951,
      "inept": 4952,
      "clash": 4953,
      "plate": 4954,
      "twice": 4955,
      "relies": 4956,
      "sticks": 4957,
      "ica": 4958,
      "button": 4959,
      "excuse": 4960,
      "failed": 4961,
      "wrote": 4962,
      "exas": 4963,
      "toro": 4964,
      "jane": 4965,
      "racial": 4966,
      "dos": 4967,
      "theaters": 4968,
      "orient": 4969,
      "asks": 4970,
      "exceed": 4971,
      "pred": 4972,
      "international": 4973,
      "colla": 4974,
      "competit": 4975,
      "whims": 4976,
      "umer": 4977,
      "flight": 4978,
      "las": 4979,
      "gothic": 4980,
      "ato": 4981,
      "producer": 4982,
      "mysterious": 4983,
      "unfolds": 4984,
      "awards": 4985,
      "sive": 4986,
      "raises": 4987,
      "prefer": 4988,
      "polished": 4989,
      "winds": 4990,
      "bull": 4991,
      "experiences": 4992,
      "asm": 4993,
      "hoff": 4994,
      "cerity": 4995,
      "killing": 4996,
      "military": 4997,
      "private": 4998,
      "lone": 4999
    },
    "merges": [
      [
        "R",
        "P"
      ],
      [
        "t",
        "h"
      ],
      [
        "i",
        "n"
      ],
      [
        "O",
        "S"
      ],
      [
        "a",
        "n"
      ],
      [
        "e",
        "r"
      ],
      [
        "th",
        "e"
      ],
      [
        "r",
        "e"
      ],
      [
        "e",
        "n"
      ],
      [
        "i",
        "s"
      ],
      [
        "o",
        "n"
      ],
      [
        "a",
        "t"
      ],
      [
        "E",
        "N"
      ],
      [
        "E",
        "OS"
      ],
      [
        "O",
        "R"
      ],
      [
        "S",
        "OS"
      ],
      [
        "S",
        "EN"
      ],
      [
        "S",
        "OR"
      ],
      [
        "i",
        "t"
      ],
      [
        "e",
        "s"
      ],
      [
        "in",
        "g"
      ],
      [
        "o",
        "r"
      ],
      [
        "a",
        "l"
      ],
      [
        "o",
        "u"
      ],
      [
        "an",
        "d"
      ],
      [
        "s",
        "t"
      ],
      [
        "o",
        "f"
      ],
      [
        "a",
        "r"
      ],
      [
        "F",
        "R"
      ],
      [
        "FR",
        "E"
      ],
      [
        "t",
        "o"
      ],
      [
        "l",
        "y"
      ],
      [
        "e",
        "d"
      ],
      [
        "i",
        "l"
      ],
      [
        "i",
        "c"
      ],
      [
        "a",
        "s"
      ],
      [
        "l",
        "e"
      ],
      [
        "o",
        "m"
      ],
      [
        "c",
        "h"
      ],
      [
        "e",
        "l"
      ],
      [
        "m",
        "o"
      ],
      [
        "O",
        "T"
      ],
      [
        "R",
        "OT"
      ],
      [
        "c",
        "t"
      ],
      [
        "en",
        "t"
      ],
      [
        "i",
        "on"
      ],
      [
        "s",
        "e"
      ],
      [
        "u",
        "t"
      ],
      [
        "b",
        "e"
      ],
      [
        "m",
        "a"
      ],
      [
        "f",
        "or"
      ],
      [
        "th",
        "at"
      ],
      [
        "u",
        "n"
      ],
      [
        "v",
        "e"
      ],
      [
        "r",
        "a"
      ],
      [
        "g",
        "h"
      ],
      [
        "w",
        "h"
      ],
      [
        "v",
        "i"
      ],
      [
        "l",
        "o"
      ],
      [
        "l",
        "i"
      ],
      [
        "d",
        "e"
      ],
      [
        "v",
        "er"
      ],
      [
        "u",
        "l"
      ],
      [
        "r",
        "o"
      ],
      [
        "c",
        "e"
      ],
      [
        "a",
        "b"
      ],
      [
        "i",
        "m"
      ],
      [
        "n",
        "o"
      ],
      [
        "i",
        "th"
      ],
      [
        "f",
        "il"
      ],
      [
        "fil",
        "m"
      ],
      [
        "w",
        "ith"
      ],
      [
        "b",
        "ut"
      ],
      [
        "a",
        "m"
      ],
      [
        "r",
        "i"
      ],
      [
        "c",
        "om"
      ],
      [
        "s",
        "u"
      ],
      [
        "k",
        "e"
      ],
      [
        "a",
        "d"
      ],
      [
        "s",
        "h"
      ],
      [
        "o",
        "l"
      ],
      [
        "l",
        "a"
      ],
      [
        "vi",
        "e"
      ],
      [
        "th",
        "is"
      ],
      [
        "g",
        "e"
      ],
      [
        ".",
        "."
      ],
      [
        "f",
        "e"
      ],
      [
        "d",
        "i"
      ],
      [
        "y",
        "ou"
      ],
      [
        "ou",
        "t"
      ],
      [
        "it",
        "s"
      ],
      [
        "a",
        "ct"
      ],
      [
        "p",
        "er"
      ],
      [
        "es",
        "s"
      ],
      [
        "t",
        "er"
      ],
      [
        "i",
        "r"
      ],
      [
        "s",
        "p"
      ],
      [
        "e",
        "x"
      ],
      [
        "on",
        "e"
      ],
      [
        "m",
        "an"
      ],
      [
        "th",
        "er"
      ],
      [
        "d",
        "o"
      ],
      [
        "il",
        "l"
      ],
      [
        "al",
        "l"
      ],
      [
        "t",
        "a"
      ],
      [
        "es",
        "t"
      ],
      [
        "n",
        "e"
      ],
      [
        "a",
        "re"
      ],
      [
        "gh",
        "t"
      ],
      [
        "c",
        "k"
      ],
      [
        "o",
        "d"
      ],
      [
        "c",
        "on"
      ],
      [
        "mo",
        "vie"
      ],
      [
        "s",
        "c"
      ],
      [
        "p",
        "o"
      ],
      [
        "a",
        "y"
      ],
      [
        "s",
        "o"
      ],
      [
        "a",
        "p"
      ],
      [
        "g",
        "o"
      ],
      [
        "f",
        "ul"
      ],
      [
        "u",
        "r"
      ],
      [
        "q",
        "u"
      ],
      [
        "er",
        "s"
      ],
      [
        "r",
        "om"
      ],
      [
        "ou",
        "s"
      ],
      [
        "ar",
        "t"
      ],
      [
        "an",
        "t"
      ],
      [
        "e",
        "m"
      ],
      [
        "no",
        "t"
      ],
      [
        "at",
        "ion"
      ],
      [
        "is",
        "t"
      ],
      [
        "al",
        "ly"
      ],
      [
        "h",
        "e"
      ],
      [
        "w",
        "or"
      ],
      [
        "u",
        "s"
      ],
      [
        "w",
        "e"
      ],
      [
        "i",
        "ve"
      ],
      [
        "l",
        "d"
      ],
      [
        "p",
        "re"
      ],
      [
        "p",
        "e"
      ],
      [
        "om",
        "e"
      ],
      [
        "h",
        "a"
      ],
      [
        "u",
        "re"
      ],
      [
        "u",
        "m"
      ],
      [
        "el",
        "l"
      ],
      [
        "u",
        "st"
      ],
      [
        "b",
        "y"
      ],
      [
        "or",
        "y"
      ],
      [
        "p",
        "ro"
      ],
      [
        "d",
        "er"
      ],
      [
        "at",
        "e"
      ],
      [
        "i",
        "f"
      ],
      [
        "s",
        "ome"
      ],
      [
        "ou",
        "gh"
      ],
      [
        "ab",
        "le"
      ],
      [
        "t",
        "im"
      ],
      [
        "o",
        "w"
      ],
      [
        "li",
        "ke"
      ],
      [
        "it",
        "y"
      ],
      [
        "..",
        "."
      ],
      [
        "mo",
        "re"
      ],
      [
        "th",
        "ing"
      ],
      [
        "en",
        "d"
      ],
      [
        "u",
        "p"
      ],
      [
        "i",
        "g"
      ],
      [
        "h",
        "er"
      ],
      [
        "f",
        "rom"
      ],
      [
        "i",
        "d"
      ],
      [
        "a",
        "st"
      ],
      [
        "th",
        "an"
      ],
      [
        "e",
        "v"
      ],
      [
        "t",
        "s"
      ],
      [
        "h",
        "as"
      ],
      [
        "ch",
        "ar"
      ],
      [
        "b",
        "o"
      ],
      [
        "ab",
        "out"
      ],
      [
        "in",
        "d"
      ],
      [
        "a",
        "g"
      ],
      [
        "is",
        "h"
      ],
      [
        "ou",
        "ld"
      ],
      [
        "h",
        "is"
      ],
      [
        "o",
        "p"
      ],
      [
        "t",
        "r"
      ],
      [
        "i",
        "ght"
      ],
      [
        "mo",
        "st"
      ],
      [
        "st",
        "ory"
      ],
      [
        "ar",
        "d"
      ],
      [
        "ver",
        "y"
      ],
      [
        "in",
        "t"
      ],
      [
        "k",
        "ing"
      ],
      [
        "in",
        "e"
      ],
      [
        "m",
        "e"
      ],
      [
        "ou",
        "n"
      ],
      [
        "ha",
        "ve"
      ],
      [
        "on",
        "g"
      ],
      [
        "f",
        "un"
      ],
      [
        "w",
        "ay"
      ],
      [
        "wh",
        "o"
      ],
      [
        "s",
        "s"
      ],
      [
        "en",
        "ce"
      ],
      [
        "ou",
        "r"
      ],
      [
        "ther",
        "e"
      ],
      [
        "j",
        "o"
      ],
      [
        "p",
        "la"
      ],
      [
        "re",
        "ct"
      ],
      [
        "c",
        "an"
      ],
      [
        "i",
        "e"
      ],
      [
        "th",
        "r"
      ],
      [
        "wh",
        "at"
      ],
      [
        "a",
        "c"
      ],
      [
        "a",
        "u"
      ],
      [
        "di",
        "rect"
      ],
      [
        "e",
        "p"
      ],
      [
        "re",
        "at"
      ],
      [
        "m",
        "ent"
      ],
      [
        "j",
        "ust"
      ],
      [
        "ic",
        "h"
      ],
      [
        "y",
        "e"
      ],
      [
        "c",
        "o"
      ],
      [
        "c",
        "es"
      ],
      [
        "t",
        "ra"
      ],
      [
        "k",
        "es"
      ],
      [
        "t",
        "e"
      ],
      [
        "it",
        "t"
      ],
      [
        "char",
        "act"
      ],
      [
        "m",
        "u"
      ],
      [
        "l",
        "ess"
      ],
      [
        "k",
        "s"
      ],
      [
        "do",
        "es"
      ],
      [
        "c",
        "l"
      ],
      [
        "v",
        "es"
      ],
      [
        "it",
        "e"
      ],
      [
        "p",
        "le"
      ],
      [
        "p",
        "t"
      ],
      [
        "ta",
        "in"
      ],
      [
        "go",
        "od"
      ],
      [
        "i",
        "al"
      ],
      [
        "b",
        "r"
      ],
      [
        "i",
        "es"
      ],
      [
        "ev",
        "en"
      ],
      [
        "o",
        "ver"
      ],
      [
        "ic",
        "al"
      ],
      [
        "an",
        "y"
      ],
      [
        "as",
        "s"
      ],
      [
        "in",
        "to"
      ],
      [
        "g",
        "u"
      ],
      [
        "d",
        "es"
      ],
      [
        "b",
        "le"
      ],
      [
        "i",
        "ous"
      ],
      [
        "f",
        "a"
      ],
      [
        "ar",
        "y"
      ],
      [
        "per",
        "for"
      ],
      [
        "w",
        "ill"
      ],
      [
        "g",
        "en"
      ],
      [
        "w",
        "o"
      ],
      [
        "oun",
        "d"
      ],
      [
        "d",
        "ra"
      ],
      [
        "p",
        "h"
      ],
      [
        "of",
        "f"
      ],
      [
        "t",
        "t"
      ],
      [
        "mu",
        "ch"
      ],
      [
        "d",
        "is"
      ],
      [
        "fe",
        "el"
      ],
      [
        "i",
        "re"
      ],
      [
        "ic",
        "k"
      ],
      [
        "com",
        "ed"
      ],
      [
        "tim",
        "e"
      ],
      [
        "m",
        "at"
      ],
      [
        "to",
        "o"
      ],
      [
        "-",
        "-"
      ],
      [
        "il",
        "e"
      ],
      [
        "perfor",
        "man"
      ],
      [
        "lo",
        "w"
      ],
      [
        "f",
        "f"
      ],
      [
        "p",
        "a"
      ],
      [
        "is",
        "e"
      ],
      [
        "er",
        "tain"
      ],
      [
        "vie",
        "w"
      ],
      [
        "ic",
        "t"
      ],
      [
        "er",
        "e"
      ],
      [
        "p",
        "r"
      ],
      [
        "fe",
        "ct"
      ],
      [
        "en",
        "s"
      ],
      [
        "be",
        "t"
      ],
      [
        "or",
        "t"
      ],
      [
        "w",
        "ell"
      ],
      [
        "ol",
        "d"
      ],
      [
        "s",
        "er"
      ],
      [
        "st",
        "r"
      ],
      [
        "o",
        "ther"
      ],
      [
        "f",
        "o"
      ],
      [
        "a",
        "ge"
      ],
      [
        "direct",
        "or"
      ],
      [
        "t",
        "al"
      ],
      [
        "w",
        "n"
      ],
      [
        "ma",
        "ke"
      ],
      [
        "b",
        "l"
      ],
      [
        "comed",
        "y"
      ],
      [
        "pla",
        "y"
      ],
      [
        "in",
        "s"
      ],
      [
        "o",
        "k"
      ],
      [
        "o",
        "t"
      ],
      [
        "w",
        "as"
      ],
      [
        "b",
        "est"
      ],
      [
        "en",
        "se"
      ],
      [
        "g",
        "r"
      ],
      [
        "an",
        "ce"
      ],
      [
        "c",
        "r"
      ],
      [
        "at",
        "ed"
      ],
      [
        "n",
        "y"
      ],
      [
        "e",
        "very"
      ],
      [
        "i",
        "de"
      ],
      [
        "m",
        "ar"
      ],
      [
        "el",
        "f"
      ],
      [
        "re",
        "al"
      ],
      [
        "su",
        "r"
      ],
      [
        "p",
        "l"
      ],
      [
        "p",
        "lo"
      ],
      [
        "b",
        "er"
      ],
      [
        "e",
        "f"
      ],
      [
        "v",
        "ing"
      ],
      [
        "an",
        "s"
      ],
      [
        "at",
        "ch"
      ],
      [
        "g",
        "reat"
      ],
      [
        "v",
        "el"
      ],
      [
        "the",
        "ir"
      ],
      [
        "act",
        "ion"
      ],
      [
        "sp",
        "e"
      ],
      [
        "at",
        "ing"
      ],
      [
        "the",
        "y"
      ],
      [
        "c",
        "re"
      ],
      [
        "w",
        "r"
      ],
      [
        "ge",
        "t"
      ],
      [
        "am",
        "e"
      ],
      [
        "a",
        "ch"
      ],
      [
        "d",
        "el"
      ],
      [
        "i",
        "z"
      ],
      [
        "wh",
        "en"
      ],
      [
        "wh",
        "ich"
      ],
      [
        "ic",
        "e"
      ],
      [
        "ul",
        "t"
      ],
      [
        "f",
        "l"
      ],
      [
        "ar",
        "s"
      ],
      [
        "a",
        "ck"
      ],
      [
        "ma",
        "y"
      ],
      [
        "a",
        "f"
      ],
      [
        "in",
        "ter"
      ],
      [
        "g",
        "i"
      ],
      [
        "h",
        "ow"
      ],
      [
        "s",
        "on"
      ],
      [
        "wh",
        "ile"
      ],
      [
        "thr",
        "ill"
      ],
      [
        "v",
        "is"
      ],
      [
        "ful",
        "l"
      ],
      [
        "ne",
        "ver"
      ],
      [
        "d",
        "u"
      ],
      [
        "on",
        "ly"
      ],
      [
        "h",
        "o"
      ],
      [
        "ent",
        "ertain"
      ],
      [
        "m",
        "in"
      ],
      [
        "ing",
        "ly"
      ],
      [
        "se",
        "e"
      ],
      [
        "wor",
        "k"
      ],
      [
        "f",
        "in"
      ],
      [
        "i",
        "ly"
      ],
      [
        "charact",
        "ers"
      ],
      [
        "no",
        "w"
      ],
      [
        "l",
        "itt"
      ],
      [
        "re",
        "n"
      ],
      [
        "ur",
        "n"
      ],
      [
        "u",
        "d"
      ],
      [
        "li",
        "fe"
      ],
      [
        "sc",
        "re"
      ],
      [
        "litt",
        "le"
      ],
      [
        "su",
        "b"
      ],
      [
        "you",
        "r"
      ],
      [
        "g",
        "ra"
      ],
      [
        "n",
        "ess"
      ],
      [
        "p",
        "art"
      ],
      [
        "ne",
        "w"
      ],
      [
        "en",
        "ough"
      ],
      [
        "c",
        "ent"
      ],
      [
        "does",
        "n"
      ],
      [
        "ion",
        "s"
      ],
      [
        "fun",
        "ny"
      ],
      [
        "w",
        "atch"
      ],
      [
        "at",
        "ive"
      ],
      [
        "mo",
        "t"
      ],
      [
        "st",
        "er"
      ],
      [
        "f",
        "ir"
      ],
      [
        "an",
        "g"
      ],
      [
        "ent",
        "s"
      ],
      [
        "h",
        "or"
      ],
      [
        "ma",
        "g"
      ],
      [
        "ver",
        "s"
      ],
      [
        "the",
        "m"
      ],
      [
        "m",
        "y"
      ],
      [
        "be",
        "en"
      ],
      [
        "e",
        "t"
      ],
      [
        "ma",
        "kes"
      ],
      [
        "y",
        "ing"
      ],
      [
        "f",
        "am"
      ],
      [
        "i",
        "p"
      ],
      [
        "un",
        "der"
      ],
      [
        "he",
        "art"
      ],
      [
        "v",
        "en"
      ],
      [
        "m",
        "is"
      ],
      [
        "ful",
        "ly"
      ],
      [
        "ri",
        "ght"
      ],
      [
        "ion",
        "al"
      ],
      [
        "lo",
        "ve"
      ],
      [
        "s",
        "m"
      ],
      [
        "r",
        "y"
      ],
      [
        "com",
        "p"
      ],
      [
        "il",
        "d"
      ],
      [
        "st",
        "ill"
      ],
      [
        "t",
        "ri"
      ],
      [
        "f",
        "r"
      ],
      [
        "her",
        "e"
      ],
      [
        "fir",
        "st"
      ],
      [
        "a",
        "k"
      ],
      [
        "i",
        "gh"
      ],
      [
        "scre",
        "en"
      ],
      [
        "ma",
        "de"
      ],
      [
        "as",
        "h"
      ],
      [
        "se",
        "em"
      ],
      [
        "t",
        "y"
      ],
      [
        "w",
        "ould"
      ],
      [
        "u",
        "al"
      ],
      [
        "c",
        "ould"
      ],
      [
        "t",
        "urn"
      ],
      [
        "la",
        "ck"
      ],
      [
        "thr",
        "ough"
      ],
      [
        "r",
        "or"
      ],
      [
        "b",
        "it"
      ],
      [
        "w",
        "er"
      ],
      [
        "dra",
        "ma"
      ],
      [
        "th",
        "ough"
      ],
      [
        "m",
        "om"
      ],
      [
        "com",
        "e"
      ],
      [
        "h",
        "u"
      ],
      [
        "am",
        "er"
      ],
      [
        "m",
        "er"
      ],
      [
        "f",
        "re"
      ],
      [
        "ar",
        "k"
      ],
      [
        "c",
        "ess"
      ],
      [
        "c",
        "in"
      ],
      [
        "vi",
        "es"
      ],
      [
        "tr",
        "u"
      ],
      [
        "ab",
        "ly"
      ],
      [
        "d",
        "ay"
      ],
      [
        "l",
        "l"
      ],
      [
        "ch",
        "o"
      ],
      [
        "c",
        "ast"
      ],
      [
        "mo",
        "vies"
      ],
      [
        "re",
        "s"
      ],
      [
        "b",
        "ig"
      ],
      [
        "film",
        "s"
      ],
      [
        "th",
        "o"
      ],
      [
        "l",
        "ong"
      ],
      [
        "w",
        "ar"
      ],
      [
        "d",
        "on"
      ],
      [
        "st",
        "e"
      ],
      [
        "t",
        "wo"
      ],
      [
        "charact",
        "er"
      ],
      [
        "en",
        "g"
      ],
      [
        "jo",
        "y"
      ],
      [
        "s",
        "a"
      ],
      [
        "ate",
        "ly"
      ],
      [
        "re",
        "view"
      ],
      [
        "wor",
        "ld"
      ],
      [
        "c",
        "i"
      ],
      [
        "s",
        "y"
      ],
      [
        "s",
        "im"
      ],
      [
        "e",
        "mot"
      ],
      [
        "sh",
        "ow"
      ],
      [
        "p",
        "p"
      ],
      [
        "w",
        "on"
      ],
      [
        "at",
        "t"
      ],
      [
        "v",
        "ent"
      ],
      [
        "some",
        "thing"
      ],
      [
        "li",
        "ght"
      ],
      [
        "performan",
        "ce"
      ],
      [
        "bet",
        "ter"
      ],
      [
        "or",
        "s"
      ],
      [
        "al",
        "so"
      ],
      [
        "s",
        "elf"
      ],
      [
        "c",
        "le"
      ],
      [
        "f",
        "ar"
      ],
      [
        "b",
        "ad"
      ],
      [
        "a",
        "in"
      ],
      [
        "j",
        "e"
      ],
      [
        "au",
        "di"
      ],
      [
        "b",
        "ack"
      ],
      [
        "t",
        "en"
      ],
      [
        "c",
        "ap"
      ],
      [
        "is",
        "n"
      ],
      [
        "c",
        "ar"
      ],
      [
        "sc",
        "en"
      ],
      [
        "h",
        "ard"
      ],
      [
        "l",
        "ing"
      ],
      [
        "sh",
        "ould"
      ],
      [
        "a",
        "ut"
      ],
      [
        "performan",
        "ces"
      ],
      [
        "v",
        "ed"
      ],
      [
        "re",
        "ally"
      ],
      [
        "wh",
        "ere"
      ],
      [
        "man",
        "y"
      ],
      [
        "do",
        "wn"
      ],
      [
        "b",
        "re"
      ],
      [
        "f",
        "t"
      ],
      [
        "po",
        "int"
      ],
      [
        "at",
        "ure"
      ],
      [
        "ro",
        "w"
      ],
      [
        "h",
        "igh"
      ],
      [
        "n",
        "ing"
      ],
      [
        "m",
        "on"
      ],
      [
        "thrill",
        "er"
      ],
      [
        "la",
        "u"
      ],
      [
        "h",
        "ap"
      ],
      [
        "v",
        "o"
      ],
      [
        "m",
        "ight"
      ],
      [
        "hor",
        "ror"
      ],
      [
        "an",
        "ish"
      ],
      [
        "o",
        "b"
      ],
      [
        "p",
        "ie"
      ],
      [
        "ar",
        "ly"
      ],
      [
        "p",
        "or"
      ],
      [
        "ow",
        "n"
      ],
      [
        "c",
        "ra"
      ],
      [
        "s",
        "at"
      ],
      [
        "con",
        "t"
      ],
      [
        "h",
        "um"
      ],
      [
        "ic",
        "ally"
      ],
      [
        "tim",
        "es"
      ],
      [
        "l",
        "es"
      ],
      [
        "ell",
        "ing"
      ],
      [
        "sp",
        "anish"
      ],
      [
        "wor",
        "th"
      ],
      [
        "st",
        "and"
      ],
      [
        "feel",
        "s"
      ],
      [
        "lau",
        "gh"
      ],
      [
        "tho",
        "se"
      ],
      [
        "su",
        "per"
      ],
      [
        "we",
        "en"
      ],
      [
        "ef",
        "fect"
      ],
      [
        "ing",
        "s"
      ],
      [
        "in",
        "al"
      ],
      [
        "b",
        "u"
      ],
      [
        "for",
        "m"
      ],
      [
        "bo",
        "th"
      ],
      [
        "wo",
        "od"
      ],
      [
        "g",
        "g"
      ],
      [
        "or",
        "ig"
      ],
      [
        "w",
        "ard"
      ],
      [
        "film",
        "ma"
      ],
      [
        "plo",
        "t"
      ],
      [
        "po",
        "wer"
      ],
      [
        "is",
        "m"
      ],
      [
        "com",
        "es"
      ],
      [
        "ation",
        "s"
      ],
      [
        "th",
        "in"
      ],
      [
        "w",
        "ant"
      ],
      [
        "se",
        "qu"
      ],
      [
        "entertain",
        "ing"
      ],
      [
        "ye",
        "ar"
      ],
      [
        "pre",
        "ss"
      ],
      [
        "ig",
        "n"
      ],
      [
        "ar",
        "r"
      ],
      [
        "pe",
        "ct"
      ],
      [
        "be",
        "ing"
      ],
      [
        "wr",
        "it"
      ],
      [
        "st",
        "y"
      ],
      [
        "f",
        "ind"
      ],
      [
        "c",
        "as"
      ],
      [
        "e",
        "ver"
      ],
      [
        "ch",
        "e"
      ],
      [
        "k",
        "now"
      ],
      [
        "en",
        "joy"
      ],
      [
        "c",
        "ial"
      ],
      [
        "u",
        "ally"
      ],
      [
        "l",
        "ed"
      ],
      [
        "inter",
        "est"
      ],
      [
        "p",
        "ol"
      ],
      [
        "sc",
        "ri"
      ],
      [
        "n",
        "er"
      ],
      [
        "lo",
        "ok"
      ],
      [
        "c",
        "um"
      ],
      [
        "ex",
        "t"
      ],
      [
        "be",
        "aut"
      ],
      [
        "ct",
        "ion"
      ],
      [
        "re",
        "d"
      ],
      [
        "bet",
        "ween"
      ],
      [
        "with",
        "out"
      ],
      [
        "hu",
        "man"
      ],
      [
        "for",
        "t"
      ],
      [
        "pe",
        "op"
      ],
      [
        "a",
        "th"
      ],
      [
        "qu",
        "e"
      ],
      [
        "fo",
        "re"
      ],
      [
        "b",
        "el"
      ],
      [
        "del",
        "i"
      ],
      [
        "cl",
        "ass"
      ],
      [
        "peop",
        "le"
      ],
      [
        "m",
        "i"
      ],
      [
        "amer",
        "ic"
      ],
      [
        "g",
        "y"
      ],
      [
        "c",
        "ol"
      ],
      [
        "ye",
        "t"
      ],
      [
        "orig",
        "inal"
      ],
      [
        "k",
        "ind"
      ],
      [
        "scri",
        "pt"
      ],
      [
        "ple",
        "as"
      ],
      [
        "h",
        "ol"
      ],
      [
        "c",
        "y"
      ],
      [
        "s",
        "ense"
      ],
      [
        "c",
        "au"
      ],
      [
        "af",
        "ter"
      ],
      [
        "p",
        "ict"
      ],
      [
        "spe",
        "ct"
      ],
      [
        "m",
        "us"
      ],
      [
        "sur",
        "pr"
      ],
      [
        "per",
        "i"
      ],
      [
        "sh",
        "e"
      ],
      [
        "m",
        "ed"
      ],
      [
        "y",
        "s"
      ],
      [
        "e",
        "le"
      ],
      [
        "en",
        "ces"
      ],
      [
        "tal",
        "e"
      ],
      [
        "re",
        "l"
      ],
      [
        "s",
        "k"
      ],
      [
        "way",
        "s"
      ],
      [
        "al",
        "e"
      ],
      [
        "st",
        "ar"
      ],
      [
        "ke",
        "ep"
      ],
      [
        "su",
        "ch"
      ],
      [
        "com",
        "ple"
      ],
      [
        "t",
        "ing"
      ],
      [
        "ex",
        "pect"
      ],
      [
        "h",
        "and"
      ],
      [
        "ex",
        "c"
      ],
      [
        "je",
        "ct"
      ],
      [
        "v",
        "al"
      ],
      [
        "s",
        "ay"
      ],
      [
        "ta",
        "ke"
      ],
      [
        "re",
        "ad"
      ],
      [
        "i",
        "mag"
      ],
      [
        "lo",
        "o"
      ],
      [
        "cau",
        "se"
      ],
      [
        "d",
        "a"
      ],
      [
        "ne",
        "ed"
      ],
      [
        "b",
        "ro"
      ],
      [
        "c",
        "or"
      ],
      [
        "f",
        "i"
      ],
      [
        "qu",
        "ite"
      ],
      [
        "s",
        "ing"
      ],
      [
        "mom",
        "ents"
      ],
      [
        "i",
        "ble"
      ],
      [
        "c",
        "ed"
      ],
      [
        "an",
        "other"
      ],
      [
        "at",
        "es"
      ],
      [
        "b",
        "lo"
      ],
      [
        "c",
        "ut"
      ],
      [
        "of",
        "ten"
      ],
      [
        "m",
        "ind"
      ],
      [
        "ist",
        "ic"
      ],
      [
        "a",
        "w"
      ],
      [
        "ou",
        "ght"
      ],
      [
        "gen",
        "re"
      ],
      [
        "do",
        "cum"
      ],
      [
        "e",
        "as"
      ],
      [
        "m",
        "ing"
      ],
      [
        "h",
        "im"
      ],
      [
        "an",
        "im"
      ],
      [
        "ag",
        "ain"
      ],
      [
        "sp",
        "ir"
      ],
      [
        "lo",
        "t"
      ],
      [
        "g",
        "re"
      ],
      [
        "pie",
        "ce"
      ],
      [
        "d",
        "ark"
      ],
      [
        "docum",
        "ent"
      ],
      [
        "c",
        "are"
      ],
      [
        "the",
        "n"
      ],
      [
        "b",
        "ra"
      ],
      [
        "t",
        "ic"
      ],
      [
        "ce",
        "pt"
      ],
      [
        "no",
        "thing"
      ],
      [
        "be",
        "cause"
      ],
      [
        "s",
        "in"
      ],
      [
        "c",
        "reat"
      ],
      [
        "fam",
        "ily"
      ],
      [
        "audi",
        "ence"
      ],
      [
        "p",
        "ar"
      ],
      [
        "se",
        "t"
      ],
      [
        "ant",
        "ic"
      ],
      [
        "the",
        "se"
      ],
      [
        "her",
        "o"
      ],
      [
        "r",
        "u"
      ],
      [
        "h",
        "ad"
      ],
      [
        "min",
        "ut"
      ],
      [
        "m",
        "em"
      ],
      [
        "la",
        "st"
      ],
      [
        "s",
        "ent"
      ],
      [
        "c",
        "lo"
      ],
      [
        "p",
        "ort"
      ],
      [
        "k",
        "id"
      ],
      [
        "al",
        "most"
      ],
      [
        "i",
        "an"
      ],
      [
        "g",
        "er"
      ],
      [
        "per",
        "fect"
      ],
      [
        "r",
        "un"
      ],
      [
        "fe",
        "w"
      ],
      [
        "end",
        "s"
      ],
      [
        "t",
        "w"
      ],
      [
        "hum",
        "or"
      ],
      [
        "t",
        "on"
      ],
      [
        "seem",
        "s"
      ],
      [
        "m",
        "ess"
      ],
      [
        "em",
        "at"
      ],
      [
        "st",
        "u"
      ],
      [
        "gen",
        "er"
      ],
      [
        "v",
        "ol"
      ],
      [
        "pro",
        "du"
      ],
      [
        "pict",
        "ure"
      ],
      [
        "gu",
        "e"
      ],
      [
        "1",
        "9"
      ],
      [
        "s",
        "we"
      ],
      [
        "le",
        "a"
      ],
      [
        "po",
        "s"
      ],
      [
        "won",
        "der"
      ],
      [
        "fr",
        "an"
      ],
      [
        "ne",
        "y"
      ],
      [
        "cin",
        "emat"
      ],
      [
        "d",
        "ist"
      ],
      [
        "il",
        "li"
      ],
      [
        "beaut",
        "i"
      ],
      [
        "on",
        "d"
      ],
      [
        "d",
        "en"
      ],
      [
        "des",
        "p"
      ],
      [
        "m",
        "s"
      ],
      [
        "t",
        "it"
      ],
      [
        "per",
        "son"
      ],
      [
        "b",
        "as"
      ],
      [
        "p",
        "ul"
      ],
      [
        "go",
        "ing"
      ],
      [
        "hap",
        "p"
      ],
      [
        "ge",
        "ts"
      ],
      [
        "ap",
        "pe"
      ],
      [
        "surpr",
        "is"
      ],
      [
        "di",
        "d"
      ],
      [
        "t",
        "ed"
      ],
      [
        "ad",
        "d"
      ],
      [
        "su",
        "c"
      ],
      [
        "ta",
        "kes"
      ],
      [
        "le",
        "ad"
      ],
      [
        "od",
        "y"
      ],
      [
        "h",
        "al"
      ],
      [
        "se",
        "x"
      ],
      [
        "h",
        "ist"
      ],
      [
        "l",
        "and"
      ],
      [
        "sh",
        "o"
      ],
      [
        "be",
        "fore"
      ],
      [
        "filmma",
        "k"
      ],
      [
        "fe",
        "ature"
      ],
      [
        "se",
        "en"
      ],
      [
        "ic",
        "s"
      ],
      [
        "al",
        "ity"
      ],
      [
        "2",
        "0"
      ],
      [
        "i",
        "a"
      ],
      [
        "po",
        "ss"
      ],
      [
        "m",
        "or"
      ],
      [
        "w",
        "om"
      ],
      [
        "as",
        "on"
      ],
      [
        "desp",
        "ite"
      ],
      [
        "g",
        "l"
      ],
      [
        "ous",
        "ly"
      ],
      [
        "h",
        "el"
      ],
      [
        "document",
        "ary"
      ],
      [
        "di",
        "ff"
      ],
      [
        "ro",
        "ss"
      ],
      [
        "o",
        "c"
      ],
      [
        "americ",
        "an"
      ],
      [
        "n",
        "arr"
      ],
      [
        "le",
        "t"
      ],
      [
        "ra",
        "ther"
      ],
      [
        "are",
        "n"
      ],
      [
        "you",
        "n"
      ],
      [
        "ag",
        "es"
      ],
      [
        "ma",
        "king"
      ],
      [
        "ul",
        "tim"
      ],
      [
        "c",
        "er"
      ],
      [
        "ter",
        "ri"
      ],
      [
        "ex",
        "peri"
      ],
      [
        "gra",
        "ph"
      ],
      [
        "str",
        "u"
      ],
      [
        "str",
        "ong"
      ],
      [
        "s",
        "ame"
      ],
      [
        "emot",
        "ional"
      ],
      [
        "p",
        "s"
      ],
      [
        "he",
        "ad"
      ],
      [
        "in",
        "ess"
      ],
      [
        "an",
        "e"
      ],
      [
        "ic",
        "ul"
      ],
      [
        "m",
        "el"
      ],
      [
        "n",
        "ight"
      ],
      [
        "ent",
        "ly"
      ],
      [
        "vi",
        "ol"
      ],
      [
        "p",
        "ut"
      ],
      [
        "re",
        "e"
      ],
      [
        "tt",
        "y"
      ],
      [
        "ly",
        "wood"
      ],
      [
        "su",
        "m"
      ],
      [
        "it",
        "ing"
      ],
      [
        "vis",
        "ual"
      ],
      [
        "com",
        "m"
      ],
      [
        "s",
        "i"
      ],
      [
        "its",
        "elf"
      ],
      [
        "il",
        "ity"
      ],
      [
        "interest",
        "ing"
      ],
      [
        "w",
        "in"
      ],
      [
        "ri",
        "d"
      ],
      [
        "f",
        "ans"
      ],
      [
        "at",
        "er"
      ],
      [
        "sh",
        "ip"
      ],
      [
        "scen",
        "es"
      ],
      [
        "e",
        "ar"
      ],
      [
        "writ",
        "er"
      ],
      [
        "mar",
        "k"
      ],
      [
        "ch",
        "ild"
      ],
      [
        "hol",
        "lywood"
      ],
      [
        "u",
        "e"
      ],
      [
        "tt",
        "ing"
      ],
      [
        "l",
        "in"
      ],
      [
        "b",
        "or"
      ],
      [
        "thin",
        "k"
      ],
      [
        "st",
        "art"
      ],
      [
        "al",
        "o"
      ],
      [
        "ion",
        "ally"
      ],
      [
        "sty",
        "le"
      ],
      [
        "c",
        "ertain"
      ],
      [
        "por",
        "tra"
      ],
      [
        "p",
        "ass"
      ],
      [
        "c",
        "a"
      ],
      [
        "wor",
        "ks"
      ],
      [
        "to",
        "p"
      ],
      [
        "c",
        "ing"
      ],
      [
        "f",
        "la"
      ],
      [
        "d",
        "re"
      ],
      [
        "st",
        "ra"
      ],
      [
        "b",
        "ly"
      ],
      [
        "ye",
        "ars"
      ],
      [
        "rom",
        "antic"
      ],
      [
        "c",
        "oun"
      ],
      [
        "n",
        "i"
      ],
      [
        "n",
        "a"
      ],
      [
        "il",
        "s"
      ],
      [
        "ure",
        "s"
      ],
      [
        "su",
        "re"
      ],
      [
        "thing",
        "s"
      ],
      [
        "watch",
        "ing"
      ],
      [
        "h",
        "our"
      ],
      [
        "act",
        "ors"
      ],
      [
        "l",
        "u"
      ],
      [
        "ire",
        "d"
      ],
      [
        "lo",
        "g"
      ],
      [
        "youn",
        "g"
      ],
      [
        "i",
        "v"
      ],
      [
        "sat",
        "is"
      ],
      [
        "st",
        "re"
      ],
      [
        "vi",
        "d"
      ],
      [
        "it",
        "ch"
      ],
      [
        "ir",
        "d"
      ],
      [
        "to",
        "ge"
      ],
      [
        "toge",
        "ther"
      ],
      [
        "m",
        "en"
      ],
      [
        "hal",
        "f"
      ],
      [
        "f",
        "all"
      ],
      [
        "pre",
        "tty"
      ],
      [
        "d",
        "y"
      ],
      [
        "f",
        "ri"
      ],
      [
        "narr",
        "ative"
      ],
      [
        "mis",
        "s"
      ],
      [
        "ultim",
        "ately"
      ],
      [
        "mat",
        "ic"
      ],
      [
        "any",
        "thing"
      ],
      [
        "on",
        "ce"
      ],
      [
        "sc",
        "i"
      ],
      [
        "tru",
        "e"
      ],
      [
        "de",
        "ep"
      ],
      [
        "s",
        "il"
      ],
      [
        "pol",
        "it"
      ],
      [
        "w",
        "ere"
      ],
      [
        "h",
        "n"
      ],
      [
        "li",
        "g"
      ],
      [
        "t",
        "ent"
      ],
      [
        "le",
        "ast"
      ],
      [
        "th",
        "ought"
      ],
      [
        "c",
        "ult"
      ],
      [
        "d",
        "ict"
      ],
      [
        "fre",
        "sh"
      ],
      [
        "f",
        "ying"
      ],
      [
        "l",
        "ine"
      ],
      [
        "an",
        "ge"
      ],
      [
        "a",
        "way"
      ],
      [
        "v",
        "in"
      ],
      [
        "fa",
        "ir"
      ],
      [
        "ar",
        "ound"
      ],
      [
        "class",
        "ic"
      ],
      [
        "h",
        "ar"
      ],
      [
        "c",
        "ine"
      ],
      [
        "ou",
        "ch"
      ],
      [
        "il",
        "i"
      ],
      [
        "ma",
        "ster"
      ],
      [
        "il",
        "ar"
      ],
      [
        "i",
        "o"
      ],
      [
        "swe",
        "et"
      ],
      [
        "minut",
        "es"
      ],
      [
        "end",
        "ing"
      ],
      [
        "un",
        "i"
      ],
      [
        "c",
        "us"
      ],
      [
        "f",
        "an"
      ],
      [
        "w",
        "a"
      ],
      [
        "ma",
        "in"
      ],
      [
        "c",
        "u"
      ],
      [
        "pla",
        "ce"
      ],
      [
        "experi",
        "ence"
      ],
      [
        "c",
        "all"
      ],
      [
        "ment",
        "s"
      ],
      [
        "f",
        "ic"
      ],
      [
        "jo",
        "hn"
      ],
      [
        "s",
        "l"
      ],
      [
        "um",
        "b"
      ],
      [
        "sequ",
        "el"
      ],
      [
        "p",
        "ly"
      ],
      [
        "ist",
        "s"
      ],
      [
        "k",
        "y"
      ],
      [
        "ch",
        "r"
      ],
      [
        "ser",
        "ies"
      ],
      [
        "gi",
        "ves"
      ],
      [
        "al",
        "ong"
      ],
      [
        "sm",
        "art"
      ],
      [
        "ith",
        "er"
      ],
      [
        "f",
        "act"
      ],
      [
        "b",
        "al"
      ],
      [
        "al",
        "ways"
      ],
      [
        "com",
        "ic"
      ],
      [
        "ad",
        "vent"
      ],
      [
        "im",
        "press"
      ],
      [
        "s",
        "ol"
      ],
      [
        "cap",
        "t"
      ],
      [
        "z",
        "z"
      ],
      [
        "act",
        "ing"
      ],
      [
        "s",
        "ou"
      ],
      [
        "turn",
        "s"
      ],
      [
        "mat",
        "er"
      ],
      [
        "w",
        "al"
      ],
      [
        "sc",
        "o"
      ],
      [
        "cine",
        "ma"
      ],
      [
        "ser",
        "ious"
      ],
      [
        "ur",
        "ing"
      ],
      [
        "every",
        "thing"
      ],
      [
        "t",
        "ouch"
      ],
      [
        "int",
        "el"
      ],
      [
        "ex",
        "plo"
      ],
      [
        "0",
        "s"
      ],
      [
        "ag",
        "ing"
      ],
      [
        "b",
        "lack"
      ],
      [
        "f",
        "ol"
      ],
      [
        "mater",
        "ial"
      ],
      [
        "it",
        "ion"
      ],
      [
        "bo",
        "ok"
      ],
      [
        "ste",
        "ad"
      ],
      [
        "al",
        "s"
      ],
      [
        "mus",
        "ic"
      ],
      [
        "a",
        "v"
      ],
      [
        "di",
        "alo"
      ],
      [
        "un",
        "ch"
      ],
      [
        "un",
        "t"
      ],
      [
        "c",
        "ur"
      ],
      [
        "d",
        "ri"
      ],
      [
        "who",
        "le"
      ],
      [
        "cinemat",
        "ic"
      ],
      [
        "f",
        "er"
      ],
      [
        "f",
        "el"
      ],
      [
        "f",
        "as"
      ],
      [
        "it",
        "ies"
      ],
      [
        "ra",
        "re"
      ],
      [
        "r",
        "ich"
      ],
      [
        "f",
        "ine"
      ],
      [
        "con",
        "d"
      ],
      [
        "y",
        "es"
      ],
      [
        "ur",
        "al"
      ],
      [
        "fa",
        "ce"
      ],
      [
        "t",
        "elling"
      ],
      [
        "kid",
        "s"
      ],
      [
        "in",
        "ation"
      ],
      [
        "p",
        "u"
      ],
      [
        "pre",
        "dict"
      ],
      [
        "ir",
        "l"
      ],
      [
        "s",
        "ound"
      ],
      [
        "me",
        "an"
      ],
      [
        "fas",
        "cin"
      ],
      [
        "dialo",
        "gue"
      ],
      [
        "com",
        "ing"
      ],
      [
        "pro",
        "b"
      ],
      [
        "sub",
        "ject"
      ],
      [
        "en",
        "ing"
      ],
      [
        "h",
        "y"
      ],
      [
        "li",
        "d"
      ],
      [
        "u",
        "se"
      ],
      [
        "em",
        "pt"
      ],
      [
        "qu",
        "est"
      ],
      [
        "comp",
        "elling"
      ],
      [
        "am",
        "p"
      ],
      [
        "g",
        "ive"
      ],
      [
        "de",
        "p"
      ],
      [
        "entertain",
        "ment"
      ],
      [
        "ive",
        "ly"
      ],
      [
        "im",
        "ent"
      ],
      [
        "mo",
        "ving"
      ],
      [
        "s",
        "ide"
      ],
      [
        "laugh",
        "s"
      ],
      [
        "le",
        "g"
      ],
      [
        "te",
        "en"
      ],
      [
        "er",
        "ing"
      ],
      [
        "su",
        "sp"
      ],
      [
        "c",
        "al"
      ],
      [
        "sh",
        "ort"
      ],
      [
        "fam",
        "ili"
      ],
      [
        "le",
        "vel"
      ],
      [
        "effect",
        "s"
      ],
      [
        "ul",
        "l"
      ],
      [
        "s",
        "ens"
      ],
      [
        "play",
        "s"
      ],
      [
        "h",
        "ilar"
      ],
      [
        "famili",
        "ar"
      ],
      [
        "li",
        "m"
      ],
      [
        "comple",
        "te"
      ],
      [
        "some",
        "times"
      ],
      [
        "cr",
        "u"
      ],
      [
        "ant",
        "ly"
      ],
      [
        "ar",
        "ing"
      ],
      [
        "br",
        "illi"
      ],
      [
        "b",
        "en"
      ],
      [
        "m",
        "id"
      ],
      [
        "go",
        "es"
      ],
      [
        "k",
        "en"
      ],
      [
        "l",
        "ar"
      ],
      [
        "us",
        "ing"
      ],
      [
        "enjoy",
        "able"
      ],
      [
        "g",
        "irl"
      ],
      [
        "pr",
        "of"
      ],
      [
        "en",
        "er"
      ],
      [
        "it",
        "ed"
      ],
      [
        "n",
        "on"
      ],
      [
        "ou",
        "se"
      ],
      [
        "b",
        "ar"
      ],
      [
        "wh",
        "y"
      ],
      [
        "hist",
        "ory"
      ],
      [
        "mo",
        "der"
      ],
      [
        "n",
        "or"
      ],
      [
        "o",
        "s"
      ],
      [
        ".",
        "\""
      ],
      [
        "t",
        "ell"
      ],
      [
        "z",
        "y"
      ],
      [
        "d",
        "s"
      ],
      [
        "re",
        "st"
      ],
      [
        "d",
        "one"
      ],
      [
        "dis",
        "ap"
      ],
      [
        "li",
        "ve"
      ],
      [
        "des",
        "er"
      ],
      [
        "act",
        "ually"
      ],
      [
        "spe",
        "cial"
      ],
      [
        "so",
        "lid"
      ],
      [
        "ent",
        "ire"
      ],
      [
        "cle",
        "ver"
      ],
      [
        "tal",
        "ent"
      ],
      [
        "th",
        "ree"
      ],
      [
        "if",
        "ic"
      ],
      [
        "l",
        "er"
      ],
      [
        "beauti",
        "ful"
      ],
      [
        "ut",
        "e"
      ],
      [
        "vers",
        "ion"
      ],
      [
        "de",
        "ad"
      ],
      [
        "di",
        "e"
      ],
      [
        "con",
        "f"
      ],
      [
        "sh",
        "ot"
      ],
      [
        "ci",
        "ally"
      ],
      [
        "sim",
        "ply"
      ],
      [
        "d",
        "ou"
      ],
      [
        "diff",
        "er"
      ],
      [
        "h",
        "on"
      ],
      [
        "g",
        "or"
      ],
      [
        "c",
        "ou"
      ],
      [
        "ap",
        "pro"
      ],
      [
        "b",
        "all"
      ],
      [
        "v",
        "il"
      ],
      [
        "g",
        "ame"
      ],
      [
        "advent",
        "ure"
      ],
      [
        "de",
        "c"
      ],
      [
        "s",
        "low"
      ],
      [
        "s",
        "it"
      ],
      [
        "sin",
        "ce"
      ],
      [
        "p",
        "aren"
      ],
      [
        "vi",
        "de"
      ],
      [
        "disap",
        "point"
      ],
      [
        "ter",
        "n"
      ],
      [
        "cl",
        "ich"
      ],
      [
        "in",
        "stead"
      ],
      [
        "ro",
        "ck"
      ],
      [
        "d",
        "an"
      ],
      [
        "st",
        "ri"
      ],
      [
        "re",
        "ason"
      ],
      [
        "fran",
        "ch"
      ],
      [
        "s",
        "ch"
      ],
      [
        "fascin",
        "ating"
      ],
      [
        "deli",
        "vers"
      ],
      [
        "tr",
        "y"
      ],
      [
        "p",
        "ac"
      ],
      [
        "suc",
        "cess"
      ],
      [
        "mi",
        "x"
      ],
      [
        "gen",
        "u"
      ],
      [
        "mom",
        "ent"
      ],
      [
        "ad",
        "ap"
      ],
      [
        "p",
        "sy"
      ],
      [
        "m",
        "as"
      ],
      [
        "p",
        "rom"
      ],
      [
        "se",
        "cond"
      ],
      [
        "u",
        "su"
      ],
      [
        "pp",
        "ing"
      ],
      [
        "prob",
        "ably"
      ],
      [
        "genu",
        "ine"
      ],
      [
        "p",
        "ast"
      ],
      [
        "am",
        "es"
      ],
      [
        "ie",
        "ve"
      ],
      [
        "s",
        "ad"
      ],
      [
        "mat",
        "ter"
      ],
      [
        "on",
        "es"
      ],
      [
        "sum",
        "mer"
      ],
      [
        "ro",
        "ll"
      ],
      [
        "te",
        "ch"
      ],
      [
        "b",
        "i"
      ],
      [
        "sm",
        "all"
      ],
      [
        "vi",
        "ous"
      ],
      [
        "pre",
        "s"
      ],
      [
        "certain",
        "ly"
      ],
      [
        "ri",
        "de"
      ],
      [
        "i",
        "ev"
      ],
      [
        "g",
        "ri"
      ],
      [
        "k",
        "ill"
      ],
      [
        "h",
        "old"
      ],
      [
        "eas",
        "y"
      ],
      [
        "d",
        "est"
      ],
      [
        "fl",
        "ick"
      ],
      [
        "f",
        "ant"
      ],
      [
        "part",
        "icul"
      ],
      [
        "direct",
        "ion"
      ],
      [
        "eng",
        "aging"
      ],
      [
        "d",
        "in"
      ],
      [
        "del",
        "ight"
      ],
      [
        ",",
        "\""
      ],
      [
        "m",
        "ic"
      ],
      [
        "tru",
        "ly"
      ],
      [
        "moder",
        "n"
      ],
      [
        "off",
        "ers"
      ],
      [
        "appe",
        "al"
      ],
      [
        "s",
        "w"
      ],
      [
        "ation",
        "al"
      ],
      [
        "be",
        "g"
      ],
      [
        "l",
        "ish"
      ],
      [
        "j",
        "u"
      ],
      [
        "or",
        "ies"
      ],
      [
        "f",
        "ra"
      ],
      [
        "cr",
        "im"
      ],
      [
        "power",
        "ful"
      ],
      [
        "al",
        "low"
      ],
      [
        "id",
        "ent"
      ],
      [
        "franch",
        "ise"
      ],
      [
        "viol",
        "ence"
      ],
      [
        "dre",
        "am"
      ],
      [
        "predict",
        "able"
      ],
      [
        "sp",
        "i"
      ],
      [
        "ro",
        "le"
      ],
      [
        "de",
        "fin"
      ],
      [
        "al",
        "though"
      ],
      [
        "pro",
        "ble"
      ],
      [
        "h",
        "ome"
      ],
      [
        "poss",
        "ible"
      ],
      [
        "any",
        "one"
      ],
      [
        "ce",
        "ed"
      ],
      [
        "most",
        "ly"
      ],
      [
        "intel",
        "lig"
      ],
      [
        "im",
        "port"
      ],
      [
        "susp",
        "ense"
      ],
      [
        "es",
        "pe"
      ],
      [
        "gr",
        "ound"
      ],
      [
        "sc",
        "ar"
      ],
      [
        "g",
        "ed"
      ],
      [
        "man",
        "ages"
      ],
      [
        "a",
        "ce"
      ],
      [
        "m",
        "ise"
      ],
      [
        "m",
        "ust"
      ],
      [
        "b",
        "ud"
      ],
      [
        "e",
        "qu"
      ],
      [
        "spect",
        "ac"
      ],
      [
        "b",
        "ur"
      ],
      [
        "in",
        "cre"
      ],
      [
        "le",
        "ct"
      ],
      [
        "espe",
        "cially"
      ],
      [
        "like",
        "ly"
      ],
      [
        "fo",
        "cus"
      ],
      [
        "rom",
        "ance"
      ],
      [
        "le",
        "e"
      ],
      [
        "tr",
        "ans"
      ],
      [
        "in",
        "ed"
      ],
      [
        "hap",
        "s"
      ],
      [
        "in",
        "sp"
      ],
      [
        "th",
        "or"
      ],
      [
        "go",
        "t"
      ],
      [
        "bo",
        "y"
      ],
      [
        "ens",
        "ion"
      ],
      [
        "r",
        "ic"
      ],
      [
        "scen",
        "e"
      ],
      [
        "no",
        "vel"
      ],
      [
        "b",
        "ody"
      ],
      [
        "ul",
        "a"
      ],
      [
        "p",
        "ed"
      ],
      [
        "portra",
        "it"
      ],
      [
        "fant",
        "as"
      ],
      [
        "ber",
        "g"
      ],
      [
        "fol",
        "low"
      ],
      [
        "be",
        "comes"
      ],
      [
        "satis",
        "fying"
      ],
      [
        "e",
        "ach"
      ],
      [
        "stu",
        "ff"
      ],
      [
        "loo",
        "king"
      ],
      [
        "char",
        "m"
      ],
      [
        "p",
        "at"
      ],
      [
        "comple",
        "x"
      ],
      [
        "ict",
        "ion"
      ],
      [
        "st",
        "op"
      ],
      [
        "in",
        "vol"
      ],
      [
        "i",
        "er"
      ],
      [
        "iz",
        "ed"
      ],
      [
        "tit",
        "le"
      ],
      [
        "cra",
        "ft"
      ],
      [
        "oc",
        "cas"
      ],
      [
        "deli",
        "ver"
      ],
      [
        "el",
        "ess"
      ],
      [
        "c",
        "amer"
      ],
      [
        "de",
        "ta"
      ],
      [
        "b",
        "an"
      ],
      [
        "ar",
        "ch"
      ],
      [
        "pa",
        "ck"
      ],
      [
        "cas",
        "e"
      ],
      [
        "bre",
        "a"
      ],
      [
        "read",
        "y"
      ],
      [
        "fin",
        "al"
      ],
      [
        "b",
        "ing"
      ],
      [
        "ul",
        "ts"
      ],
      [
        "od",
        "ra"
      ],
      [
        "be",
        "at"
      ],
      [
        "le",
        "y"
      ],
      [
        "per",
        "haps"
      ],
      [
        "tr",
        "ying"
      ],
      [
        "ef",
        "fort"
      ],
      [
        "er",
        "y"
      ],
      [
        "su",
        "ff"
      ],
      [
        "l",
        "at"
      ],
      [
        "po",
        "p"
      ],
      [
        "int",
        "ri"
      ],
      [
        "pre",
        "mise"
      ],
      [
        "who",
        "se"
      ],
      [
        "st",
        "ep"
      ],
      [
        "t",
        "one"
      ],
      [
        "filmmak",
        "er"
      ],
      [
        "s",
        "el"
      ],
      [
        "el",
        "se"
      ],
      [
        "vis",
        "ion"
      ],
      [
        "si",
        "der"
      ],
      [
        "in",
        "st"
      ],
      [
        "clo",
        "se"
      ],
      [
        "u",
        "es"
      ],
      [
        "g",
        "ar"
      ],
      [
        "gi",
        "ven"
      ],
      [
        "pre",
        "sent"
      ],
      [
        "wh",
        "e"
      ],
      [
        "s",
        "or"
      ],
      [
        "ent",
        "y"
      ],
      [
        "n",
        "ice"
      ],
      [
        "feel",
        "ing"
      ],
      [
        "t",
        "ly"
      ],
      [
        "fla",
        "w"
      ],
      [
        "ke",
        "y"
      ],
      [
        "us",
        "ed"
      ],
      [
        "wom",
        "en"
      ],
      [
        "s",
        "ort"
      ],
      [
        "h",
        "ouse"
      ],
      [
        "ho",
        "pe"
      ],
      [
        "m",
        "al"
      ],
      [
        "direct",
        "ed"
      ],
      [
        "le",
        "ft"
      ],
      [
        "ex",
        "am"
      ],
      [
        "polit",
        "ical"
      ],
      [
        "audi",
        "ences"
      ],
      [
        "sil",
        "ly"
      ],
      [
        "my",
        "ster"
      ],
      [
        "mel",
        "odra"
      ],
      [
        "s",
        "cho"
      ],
      [
        "j",
        "ack"
      ],
      [
        "filmma",
        "king"
      ],
      [
        "ed",
        "ly"
      ],
      [
        "spir",
        "it"
      ],
      [
        "graph",
        "y"
      ],
      [
        "t",
        "ch"
      ],
      [
        "every",
        "one"
      ],
      [
        "st",
        "ud"
      ],
      [
        "res",
        "ult"
      ],
      [
        "t",
        "ation"
      ],
      [
        "e",
        "ye"
      ],
      [
        "f",
        "ound"
      ],
      [
        "sou",
        "l"
      ],
      [
        "be",
        "y"
      ],
      [
        "f",
        "ash"
      ],
      [
        "ul",
        "ar"
      ],
      [
        "stru",
        "ct"
      ],
      [
        "itt",
        "en"
      ],
      [
        "r",
        "al"
      ],
      [
        "n",
        "ed"
      ],
      [
        "loo",
        "ks"
      ],
      [
        "t",
        "reat"
      ],
      [
        "th",
        "y"
      ],
      [
        "m",
        "c"
      ],
      [
        "show",
        "s"
      ],
      [
        "view",
        "ers"
      ],
      [
        "con",
        "sider"
      ],
      [
        "scho",
        "ol"
      ],
      [
        "com",
        "b"
      ],
      [
        ")",
        ","
      ],
      [
        "f",
        "u"
      ],
      [
        "filmmak",
        "ers"
      ],
      [
        "pl",
        "ic"
      ],
      [
        "w",
        "it"
      ],
      [
        "l",
        "it"
      ],
      [
        "ex",
        "act"
      ],
      [
        "po",
        "tent"
      ],
      [
        "wom",
        "an"
      ],
      [
        "f",
        "ast"
      ],
      [
        "sent",
        "iment"
      ],
      [
        "m",
        "ur"
      ],
      [
        "ab",
        "ility"
      ],
      [
        "n",
        "at"
      ],
      [
        "de",
        "m"
      ],
      [
        "fort",
        "un"
      ],
      [
        "ide",
        "a"
      ],
      [
        "lo",
        "st"
      ],
      [
        "t",
        "re"
      ],
      [
        "de",
        "but"
      ],
      [
        "blo",
        "od"
      ],
      [
        "fash",
        "ion"
      ],
      [
        "person",
        "al"
      ],
      [
        "to",
        "m"
      ],
      [
        "am",
        "bit"
      ],
      [
        "surpris",
        "ingly"
      ],
      [
        "d",
        "ull"
      ],
      [
        "t",
        "ro"
      ],
      [
        "ish",
        "ed"
      ],
      [
        "form",
        "ula"
      ],
      [
        "m",
        "ale"
      ],
      [
        "in",
        "es"
      ],
      [
        "ab",
        "o"
      ],
      [
        "ter",
        "s"
      ],
      [
        "pa",
        "in"
      ],
      [
        "itt",
        "y"
      ],
      [
        "fantas",
        "y"
      ],
      [
        "act",
        "ed"
      ],
      [
        "jo",
        "kes"
      ],
      [
        "sh",
        "ar"
      ],
      [
        "act",
        "or"
      ],
      [
        "z",
        "e"
      ],
      [
        "n",
        "ature"
      ],
      [
        "ta",
        "king"
      ],
      [
        "r",
        "is"
      ],
      [
        "de",
        "ath"
      ],
      [
        "j",
        "our"
      ],
      [
        "wr",
        "itten"
      ],
      [
        "f",
        "ire"
      ],
      [
        "fri",
        "end"
      ],
      [
        "differ",
        "ent"
      ],
      [
        "on",
        "s"
      ],
      [
        "jo",
        "b"
      ],
      [
        "child",
        "ren"
      ],
      [
        "od",
        "d"
      ],
      [
        "bey",
        "ond"
      ],
      [
        "hel",
        "p"
      ],
      [
        "pro",
        "vo"
      ],
      [
        "keep",
        "s"
      ],
      [
        "g",
        "es"
      ],
      [
        "w",
        "ild"
      ],
      [
        "sp",
        "o"
      ],
      [
        "mus",
        "ical"
      ],
      [
        "w",
        "ise"
      ],
      [
        "st",
        "un"
      ],
      [
        "re",
        "le"
      ],
      [
        "char",
        "ming"
      ],
      [
        "f",
        "ight"
      ],
      [
        "p",
        "ri"
      ],
      [
        "produ",
        "ction"
      ],
      [
        "ent",
        "ion"
      ],
      [
        "p",
        "ay"
      ],
      [
        "fel",
        "t"
      ],
      [
        "ex",
        "tra"
      ],
      [
        "ra",
        "ge"
      ],
      [
        "do",
        "g"
      ],
      [
        "anim",
        "ated"
      ],
      [
        "h",
        "op"
      ],
      [
        "sequ",
        "ences"
      ],
      [
        "o",
        "re"
      ],
      [
        "sho",
        "ck"
      ],
      [
        "n",
        "ext"
      ],
      [
        "log",
        "ical"
      ],
      [
        "h",
        "ind"
      ],
      [
        "war",
        "m"
      ],
      [
        "l",
        "an"
      ],
      [
        "k",
        "no"
      ],
      [
        "in",
        "spir"
      ],
      [
        "af",
        "fect"
      ],
      [
        "p",
        "ur"
      ],
      [
        "t",
        "ar"
      ],
      [
        "exact",
        "ly"
      ],
      [
        "c",
        "our"
      ],
      [
        "li",
        "ves"
      ],
      [
        "sub",
        "t"
      ],
      [
        "lea",
        "ve"
      ],
      [
        "pl",
        "enty"
      ],
      [
        "be",
        "come"
      ],
      [
        "h",
        "an"
      ],
      [
        "it",
        "al"
      ],
      [
        "c",
        "op"
      ],
      [
        "pro",
        "ves"
      ],
      [
        "rel",
        "ation"
      ],
      [
        "ser",
        "v"
      ],
      [
        "ut",
        "ter"
      ],
      [
        "vel",
        "op"
      ],
      [
        "ic",
        "ks"
      ],
      [
        "lack",
        "s"
      ],
      [
        "h",
        "it"
      ],
      [
        "in",
        "v"
      ],
      [
        "un",
        "d"
      ],
      [
        "hilar",
        "ious"
      ],
      [
        "wor",
        "st"
      ],
      [
        "ide",
        "as"
      ],
      [
        "g",
        "ent"
      ],
      [
        "sim",
        "ple"
      ],
      [
        "p",
        "y"
      ],
      [
        "one",
        "y"
      ],
      [
        "s",
        "light"
      ],
      [
        "s",
        "n"
      ],
      [
        "so",
        "cial"
      ],
      [
        "i",
        "b"
      ],
      [
        "e",
        "k"
      ],
      [
        "v",
        "an"
      ],
      [
        "re",
        "mark"
      ],
      [
        "exc",
        "iting"
      ],
      [
        "e",
        "ither"
      ],
      [
        "c",
        "ise"
      ],
      [
        "r",
        "ing"
      ],
      [
        "ou",
        "d"
      ],
      [
        "end",
        "ed"
      ],
      [
        "st",
        "ars"
      ],
      [
        "bas",
        "ed"
      ],
      [
        "ta",
        "ge"
      ],
      [
        "impress",
        "ive"
      ],
      [
        "im",
        "m"
      ],
      [
        "relation",
        "ship"
      ],
      [
        "mess",
        "age"
      ],
      [
        "g",
        "on"
      ],
      [
        "des",
        "ign"
      ],
      [
        "psy",
        "cho"
      ],
      [
        "ang",
        "er"
      ],
      [
        "re",
        "f"
      ],
      [
        "ep",
        "ic"
      ],
      [
        "be",
        "hind"
      ],
      [
        "ener",
        "gy"
      ],
      [
        "effect",
        "ive"
      ],
      [
        "wh",
        "ite"
      ],
      [
        "vi",
        "r"
      ],
      [
        "terri",
        "fic"
      ],
      [
        "ce",
        "le"
      ],
      [
        "iz",
        "e"
      ],
      [
        "hour",
        "s"
      ],
      [
        "story",
        "telling"
      ],
      [
        "cre",
        "d"
      ],
      [
        "iz",
        "ing"
      ],
      [
        "br",
        "ing"
      ],
      [
        "con",
        "vent"
      ],
      [
        "beauti",
        "fully"
      ],
      [
        "complete",
        "ly"
      ],
      [
        "d",
        "ing"
      ],
      [
        "v",
        "or"
      ],
      [
        "is",
        "su"
      ],
      [
        "camer",
        "a"
      ],
      [
        "d",
        "om"
      ],
      [
        "b",
        "ust"
      ],
      [
        "de",
        "velop"
      ],
      [
        "t",
        "ension"
      ],
      [
        "again",
        "st"
      ],
      [
        "c",
        "li"
      ],
      [
        "i",
        "ally"
      ],
      [
        "cele",
        "br"
      ],
      [
        "ne",
        "arly"
      ],
      [
        "worth",
        "y"
      ],
      [
        "in",
        "vent"
      ],
      [
        "g",
        "ro"
      ],
      [
        "k",
        "er"
      ],
      [
        "appro",
        "ach"
      ],
      [
        "intri",
        "gu"
      ],
      [
        "brilli",
        "ant"
      ],
      [
        "b",
        "a"
      ],
      [
        "al",
        "i"
      ],
      [
        "anim",
        "ation"
      ],
      [
        "st",
        "ories"
      ],
      [
        "bu",
        "ild"
      ],
      [
        "re",
        "g"
      ],
      [
        "tw",
        "ist"
      ],
      [
        "om",
        "b"
      ],
      [
        "as",
        "e"
      ],
      [
        "under",
        "stand"
      ],
      [
        "gr",
        "and"
      ],
      [
        "o",
        "scar"
      ],
      [
        "insp",
        "ired"
      ],
      [
        "a",
        "ir"
      ],
      [
        "h",
        "am"
      ],
      [
        "ex",
        "e"
      ],
      [
        "see",
        "ing"
      ],
      [
        "tru",
        "th"
      ],
      [
        "or",
        "able"
      ],
      [
        "ele",
        "ments"
      ],
      [
        "eas",
        "ily"
      ],
      [
        "fil",
        "led"
      ],
      [
        "w",
        "es"
      ],
      [
        "or",
        "din"
      ],
      [
        "adap",
        "tation"
      ],
      [
        "care",
        "er"
      ],
      [
        "fl",
        "u"
      ],
      [
        "him",
        "self"
      ],
      [
        "t",
        "v"
      ],
      [
        "ex",
        "cept"
      ],
      [
        "a",
        "ma"
      ],
      [
        "ure",
        "d"
      ],
      [
        "ent",
        "ial"
      ],
      [
        "less",
        "ly"
      ],
      [
        "dra",
        "matic"
      ],
      [
        "fa",
        "ils"
      ],
      [
        "qu",
        "ie"
      ],
      [
        "d",
        "le"
      ],
      [
        "con",
        "s"
      ],
      [
        "ch",
        "an"
      ],
      [
        "in",
        "o"
      ],
      [
        "ta",
        "st"
      ],
      [
        "did",
        "n"
      ],
      [
        "than",
        "ks"
      ],
      [
        "on",
        "ic"
      ],
      [
        "con",
        "vin"
      ],
      [
        "a",
        "de"
      ],
      [
        "w",
        "ish"
      ],
      [
        "exc",
        "ell"
      ],
      [
        "lar",
        "ge"
      ],
      [
        "re",
        "ma"
      ],
      [
        "usu",
        "al"
      ],
      [
        "day",
        "s"
      ],
      [
        "z",
        "ing"
      ],
      [
        "hon",
        "est"
      ],
      [
        "stra",
        "ight"
      ],
      [
        "rema",
        "ins"
      ],
      [
        "di",
        "g"
      ],
      [
        "o",
        "per"
      ],
      [
        "ren",
        "ch"
      ],
      [
        "bre",
        "ak"
      ],
      [
        "exe",
        "cut"
      ],
      [
        "re",
        "ss"
      ],
      [
        "is",
        "ing"
      ],
      [
        "fa",
        "il"
      ],
      [
        "v",
        "ar"
      ],
      [
        "cr",
        "it"
      ],
      [
        "dis",
        "ney"
      ],
      [
        "want",
        "s"
      ],
      [
        "ha",
        "el"
      ],
      [
        "str",
        "ange"
      ],
      [
        "sc",
        "ary"
      ],
      [
        "st",
        "al"
      ],
      [
        "ne",
        "cess"
      ],
      [
        "vide",
        "o"
      ],
      [
        "fre",
        "e"
      ],
      [
        "fl",
        "at"
      ],
      [
        "mic",
        "hael"
      ],
      [
        "in",
        "ts"
      ],
      [
        "ab",
        "sol"
      ],
      [
        "cle",
        "ar"
      ],
      [
        "ust",
        "r"
      ],
      [
        "p",
        "al"
      ],
      [
        "w",
        "el"
      ],
      [
        "in",
        "cl"
      ],
      [
        "ma",
        "d"
      ],
      [
        "cult",
        "ure"
      ],
      [
        "mar",
        "vel"
      ],
      [
        "chr",
        "ist"
      ],
      [
        "particul",
        "arly"
      ],
      [
        "un",
        "fortun"
      ],
      [
        "screen",
        "play"
      ],
      [
        "us",
        "es"
      ],
      [
        "expect",
        "ed"
      ],
      [
        "ite",
        "ly"
      ],
      [
        "to",
        "ld"
      ],
      [
        "import",
        "ant"
      ],
      [
        "wr",
        "ong"
      ],
      [
        "m",
        "r"
      ],
      [
        "s",
        "ign"
      ],
      [
        "sat",
        "ire"
      ],
      [
        "ext",
        "re"
      ],
      [
        "p",
        "ure"
      ],
      [
        "g",
        "a"
      ],
      [
        "li",
        "es"
      ],
      [
        "s",
        "ong"
      ],
      [
        "sy",
        "m"
      ],
      [
        "m",
        "ill"
      ],
      [
        "um",
        "p"
      ],
      [
        "crim",
        "e"
      ],
      [
        "ins",
        "ight"
      ],
      [
        "n",
        "u"
      ],
      [
        "po",
        "st"
      ],
      [
        "deep",
        "ly"
      ],
      [
        "ha",
        "ving"
      ],
      [
        "on",
        "y"
      ],
      [
        "f",
        "iction"
      ],
      [
        "cont",
        "in"
      ],
      [
        "sel",
        "ves"
      ],
      [
        "absol",
        "ute"
      ],
      [
        "c",
        "la"
      ],
      [
        "d",
        "am"
      ],
      [
        "p",
        "i"
      ],
      [
        "ro",
        "b"
      ],
      [
        "1",
        "0"
      ],
      [
        "p",
        "ra"
      ],
      [
        "he",
        "av"
      ],
      [
        "n",
        "one"
      ],
      [
        "us",
        "ion"
      ],
      [
        "es",
        "e"
      ],
      [
        "may",
        "be"
      ],
      [
        "s",
        "la"
      ],
      [
        "stud",
        "y"
      ],
      [
        "di",
        "o"
      ],
      [
        "so",
        "ph"
      ],
      [
        "ge",
        "tting"
      ],
      [
        "th",
        "ird"
      ],
      [
        "att",
        "empt"
      ],
      [
        "the",
        "tic"
      ],
      [
        "ex",
        "ist"
      ],
      [
        "ag",
        "ed"
      ],
      [
        "de",
        "v"
      ],
      [
        "intrigu",
        "ing"
      ],
      [
        "vo",
        "id"
      ],
      [
        "ro",
        "om"
      ],
      [
        "st",
        "ay"
      ],
      [
        "m",
        "es"
      ],
      [
        "ct",
        "ive"
      ],
      [
        "em",
        "ent"
      ],
      [
        "wonder",
        "ful"
      ],
      [
        "nat",
        "ural"
      ],
      [
        "myster",
        "y"
      ],
      [
        "ious",
        "ly"
      ],
      [
        "abo",
        "ve"
      ],
      [
        "el",
        "s"
      ],
      [
        "melodra",
        "ma"
      ],
      [
        "emot",
        "ionally"
      ],
      [
        "re",
        "cent"
      ],
      [
        "lea",
        "ves"
      ],
      [
        "ro",
        "ad"
      ],
      [
        "r",
        "it"
      ],
      [
        "li",
        "k"
      ],
      [
        "mag",
        "ic"
      ],
      [
        "sh",
        "a"
      ],
      [
        "att",
        "ention"
      ],
      [
        "b",
        "att"
      ],
      [
        "e",
        "yes"
      ],
      [
        "ist",
        "ry"
      ],
      [
        "al",
        "ready"
      ],
      [
        "w",
        "ast"
      ],
      [
        "em",
        "p"
      ],
      [
        "ho",
        "we"
      ],
      [
        "p",
        "es"
      ],
      [
        "play",
        "ing"
      ],
      [
        "ver",
        "se"
      ],
      [
        "im",
        "p"
      ],
      [
        "suc",
        "ceed"
      ],
      [
        "heav",
        "y"
      ],
      [
        "f",
        "our"
      ],
      [
        "excell",
        "ent"
      ],
      [
        "howe",
        "ver"
      ],
      [
        "h",
        "ell"
      ],
      [
        "con",
        "ne"
      ],
      [
        "ur",
        "y"
      ],
      [
        "occas",
        "ionally"
      ],
      [
        "beaut",
        "y"
      ],
      [
        "com",
        "fort"
      ],
      [
        "ma",
        "x"
      ],
      [
        "con",
        "cept"
      ],
      [
        "l",
        "ist"
      ],
      [
        "f",
        "ac"
      ],
      [
        "b",
        "ond"
      ],
      [
        "j",
        "or"
      ],
      [
        "unt",
        "il"
      ],
      [
        "am",
        "using"
      ],
      [
        "pp",
        "ed"
      ],
      [
        "ber",
        "t"
      ],
      [
        "g",
        "ag"
      ],
      [
        "d",
        "ro"
      ],
      [
        "ther",
        "s"
      ],
      [
        "co",
        "ol"
      ],
      [
        "fall",
        "s"
      ],
      [
        "uni",
        "que"
      ],
      [
        "n",
        "am"
      ],
      [
        "j",
        "ames"
      ],
      [
        "whe",
        "ther"
      ],
      [
        "peri",
        "od"
      ],
      [
        "su",
        "pp"
      ],
      [
        "subt",
        "le"
      ],
      [
        "se",
        "tt"
      ],
      [
        "f",
        "ut"
      ],
      [
        "qu",
        "ick"
      ],
      [
        "vis",
        "ually"
      ],
      [
        "s",
        "qu"
      ],
      [
        "pass",
        "ion"
      ],
      [
        "cre",
        "ep"
      ],
      [
        "w",
        "i"
      ],
      [
        "s",
        "es"
      ],
      [
        "blo",
        "ck"
      ],
      [
        "br",
        "ings"
      ],
      [
        "fr",
        "on"
      ],
      [
        "p",
        "unch"
      ],
      [
        "a",
        "im"
      ],
      [
        "c",
        "ul"
      ],
      [
        "ho",
        "od"
      ],
      [
        "bud",
        "get"
      ],
      [
        "br",
        "it"
      ],
      [
        "i",
        "ent"
      ],
      [
        "g",
        "od"
      ],
      [
        "dou",
        "b"
      ],
      [
        "for",
        "ce"
      ],
      [
        "p",
        "an"
      ],
      [
        "ward",
        "s"
      ],
      [
        "20",
        "0"
      ],
      [
        "part",
        "s"
      ],
      [
        "entire",
        "ly"
      ],
      [
        "do",
        "ing"
      ],
      [
        "incre",
        "di"
      ],
      [
        "re",
        "spect"
      ],
      [
        "ob",
        "vious"
      ],
      [
        "tri",
        "es"
      ],
      [
        "ear",
        "n"
      ],
      [
        "for",
        "ge"
      ],
      [
        "cons",
        "ist"
      ],
      [
        "re",
        "ve"
      ],
      [
        "da",
        "vid"
      ],
      [
        "se",
        "m"
      ],
      [
        "ordin",
        "ary"
      ],
      [
        "ic",
        "ult"
      ],
      [
        "con",
        "tri"
      ],
      [
        "il",
        "o"
      ],
      [
        "de",
        "cent"
      ],
      [
        "gu",
        "y"
      ],
      [
        "is",
        "on"
      ],
      [
        "all",
        "en"
      ],
      [
        "quest",
        "ion"
      ],
      [
        "b",
        "are"
      ],
      [
        "craft",
        "ed"
      ],
      [
        "extre",
        "me"
      ],
      [
        "b",
        "us"
      ],
      [
        "sp",
        "ace"
      ],
      [
        "perfect",
        "ly"
      ],
      [
        "run",
        "ning"
      ],
      [
        "g",
        "lo"
      ],
      [
        "ph",
        "o"
      ],
      [
        "g",
        "row"
      ],
      [
        "tr",
        "an"
      ],
      [
        "st",
        "ick"
      ],
      [
        "m",
        "art"
      ],
      [
        "wes",
        "tern"
      ],
      [
        "jour",
        "ney"
      ],
      [
        "are",
        "d"
      ],
      [
        "sub",
        "st"
      ],
      [
        "ap",
        "pre"
      ],
      [
        "mean",
        "ing"
      ],
      [
        "tt",
        "able"
      ],
      [
        "f",
        "ig"
      ],
      [
        "some",
        "one"
      ],
      [
        "at",
        "mo"
      ],
      [
        "dep",
        "th"
      ],
      [
        "ck",
        "s"
      ],
      [
        "bor",
        "ing"
      ],
      [
        "shar",
        "p"
      ],
      [
        "diff",
        "icult"
      ],
      [
        "atmo",
        "sp"
      ],
      [
        "stru",
        "gg"
      ],
      [
        "ar",
        "n"
      ],
      [
        "deser",
        "ves"
      ],
      [
        "th",
        "row"
      ],
      [
        "super",
        "hero"
      ],
      [
        "real",
        "ity"
      ],
      [
        "lin",
        "es"
      ],
      [
        "ad",
        "m"
      ],
      [
        "am",
        "ong"
      ],
      [
        "int",
        "ent"
      ],
      [
        "sk",
        "ill"
      ],
      [
        "is",
        "es"
      ],
      [
        "st",
        "at"
      ],
      [
        "ex",
        "er"
      ],
      [
        "ast",
        "er"
      ],
      [
        "americ",
        "a"
      ],
      [
        "mor",
        "al"
      ],
      [
        "bl",
        "es"
      ],
      [
        "c",
        "ity"
      ],
      [
        "e",
        "arly"
      ],
      [
        "is",
        "ed"
      ],
      [
        "lo",
        "gy"
      ],
      [
        "ev",
        "ent"
      ],
      [
        "mid",
        "dle"
      ],
      [
        "pleas",
        "ant"
      ],
      [
        "imag",
        "in"
      ],
      [
        "cou",
        "ple"
      ],
      [
        "fin",
        "ally"
      ],
      [
        "forge",
        "ttable"
      ],
      [
        "d",
        "ate"
      ],
      [
        "er",
        "a"
      ],
      [
        "m",
        "ere"
      ],
      [
        "itt",
        "ing"
      ],
      [
        "20",
        "1"
      ],
      [
        "lat",
        "est"
      ],
      [
        "it",
        "ive"
      ],
      [
        "w",
        "ater"
      ],
      [
        "ke",
        "t"
      ],
      [
        "writ",
        "ing"
      ],
      [
        "gg",
        "est"
      ],
      [
        "s",
        "un"
      ],
      [
        "su",
        "ggest"
      ],
      [
        "re",
        "ach"
      ],
      [
        "h",
        "om"
      ],
      [
        "qu",
        "ality"
      ],
      [
        "we",
        "ight"
      ],
      [
        "intellig",
        "ent"
      ],
      [
        "it",
        "ation"
      ],
      [
        "st",
        "up"
      ],
      [
        "unfortun",
        "ately"
      ],
      [
        "lit",
        "er"
      ],
      [
        "need",
        "s"
      ],
      [
        "viol",
        "ent"
      ],
      [
        ".",
        "'"
      ],
      [
        "o",
        "st"
      ],
      [
        "c",
        "row"
      ],
      [
        "ex",
        "per"
      ],
      [
        "bel",
        "iev"
      ],
      [
        "sing",
        "le"
      ],
      [
        "stand",
        "ard"
      ],
      [
        "bo",
        "x"
      ],
      [
        "n",
        "ic"
      ],
      [
        "la",
        "w"
      ],
      [
        "bl",
        "ing"
      ],
      [
        "minut",
        "e"
      ],
      [
        "view",
        "er"
      ],
      [
        "co",
        "ver"
      ],
      [
        "proble",
        "m"
      ],
      [
        "are",
        "s"
      ],
      [
        "re",
        "pe"
      ],
      [
        "er",
        "ed"
      ],
      [
        "appre",
        "ci"
      ],
      [
        "g",
        "un"
      ],
      [
        "with",
        "in"
      ],
      [
        "happ",
        "y"
      ],
      [
        "j",
        "ud"
      ],
      [
        "d",
        "umb"
      ],
      [
        "master",
        "piece"
      ],
      [
        "g",
        "ic"
      ],
      [
        "cont",
        "em"
      ],
      [
        "mem",
        "orable"
      ],
      [
        "paren",
        "ts"
      ],
      [
        ")",
        "."
      ],
      [
        "sex",
        "ual"
      ],
      [
        "pie",
        "ces"
      ],
      [
        "b",
        "ri"
      ],
      [
        "ch",
        "em"
      ],
      [
        "ab",
        "sur"
      ],
      [
        "pa",
        "ce"
      ],
      [
        "ta",
        "ken"
      ],
      [
        "over",
        "all"
      ],
      [
        "brea",
        "king"
      ],
      [
        "mem",
        "ber"
      ],
      [
        "d",
        "r"
      ],
      [
        "wor",
        "king"
      ],
      [
        "pro",
        "ject"
      ],
      [
        "lead",
        "s"
      ],
      [
        "play",
        "ed"
      ],
      [
        "remark",
        "able"
      ],
      [
        "de",
        "al"
      ],
      [
        "br",
        "ut"
      ],
      [
        "am",
        "s"
      ],
      [
        "ne",
        "ither"
      ],
      [
        "we",
        "ak"
      ],
      [
        "bro",
        "ad"
      ],
      [
        "w",
        "il"
      ],
      [
        "y",
        "al"
      ],
      [
        "c",
        "amp"
      ],
      [
        "b",
        "urn"
      ],
      [
        "hist",
        "or"
      ],
      [
        "ie",
        "ty"
      ],
      [
        "t",
        "est"
      ],
      [
        "se",
        "ver"
      ],
      [
        "in",
        "c"
      ],
      [
        "through",
        "out"
      ],
      [
        "ra",
        "m"
      ],
      [
        "cont",
        "ent"
      ],
      [
        "d",
        "im"
      ],
      [
        "re",
        "make"
      ],
      [
        "pos",
        "ed"
      ],
      [
        "m",
        "il"
      ],
      [
        "wel",
        "come"
      ],
      [
        "a",
        "h"
      ],
      [
        "sp",
        "or"
      ],
      [
        "fa",
        "ith"
      ],
      [
        "them",
        "selves"
      ],
      [
        "mi",
        "ra"
      ],
      [
        "cinemat",
        "o"
      ],
      [
        "sci",
        "ence"
      ],
      [
        "ed",
        "ge"
      ],
      [
        "ot",
        "ic"
      ],
      [
        "rid",
        "icul"
      ],
      [
        "g",
        "old"
      ],
      [
        "y",
        "ed"
      ],
      [
        "l",
        "ab"
      ],
      [
        "b",
        "ul"
      ],
      [
        "know",
        "s"
      ],
      [
        "g",
        "s"
      ],
      [
        "we",
        "ird"
      ],
      [
        "pre",
        "de"
      ],
      [
        "thrill",
        "ing"
      ],
      [
        "great",
        "est"
      ],
      [
        "g",
        "one"
      ],
      [
        "bel",
        "ieve"
      ],
      [
        "l",
        "s"
      ],
      [
        "d",
        "uring"
      ],
      [
        "gra",
        "ce"
      ],
      [
        "them",
        "es"
      ],
      [
        "int",
        "ense"
      ],
      [
        "in",
        "di"
      ],
      [
        "ex",
        "pl"
      ],
      [
        "m",
        "ult"
      ],
      [
        "cle",
        "arly"
      ],
      [
        "beg",
        "in"
      ],
      [
        "pr",
        "im"
      ],
      [
        "c",
        "at"
      ],
      [
        "fan",
        "tast"
      ],
      [
        "mo",
        "ve"
      ],
      [
        "co",
        "re"
      ],
      [
        "find",
        "s"
      ],
      [
        "touch",
        "ing"
      ],
      [
        "po",
        "ign"
      ],
      [
        "co",
        "st"
      ],
      [
        "i",
        "ed"
      ],
      [
        "es",
        "cap"
      ],
      [
        "p",
        "en"
      ],
      [
        "po",
        "se"
      ],
      [
        "des",
        "c"
      ],
      [
        "po",
        "or"
      ],
      [
        "b",
        "ed"
      ],
      [
        "surpr",
        "ise"
      ],
      [
        "prede",
        "cess"
      ],
      [
        "ha",
        "un"
      ],
      [
        "l",
        "ate"
      ],
      [
        "thor",
        "ough"
      ],
      [
        "coun",
        "t"
      ],
      [
        "p",
        "un"
      ],
      [
        "un",
        "ity"
      ],
      [
        "stup",
        "id"
      ],
      [
        "fr",
        "ustr"
      ],
      [
        "col",
        "or"
      ],
      [
        "des",
        "per"
      ],
      [
        "re",
        "fresh"
      ],
      [
        "del",
        "ic"
      ],
      [
        "cent",
        "ral"
      ],
      [
        "bl",
        "and"
      ],
      [
        "tra",
        "ck"
      ],
      [
        "li",
        "e"
      ],
      [
        "com",
        "pe"
      ],
      [
        "defin",
        "itely"
      ],
      [
        "im",
        "possible"
      ],
      [
        "mat",
        "ch"
      ],
      [
        "con",
        "cer"
      ],
      [
        "wor",
        "d"
      ],
      [
        "ra",
        "y"
      ],
      [
        "to",
        "day"
      ],
      [
        "ad",
        "es"
      ],
      [
        "high",
        "ly"
      ],
      [
        "j",
        "a"
      ],
      [
        "t",
        "u"
      ],
      [
        "bre",
        "ath"
      ],
      [
        "n",
        "umb"
      ],
      [
        "lo",
        "ck"
      ],
      [
        "watch",
        "able"
      ],
      [
        "n",
        "ame"
      ],
      [
        "gor",
        "ge"
      ],
      [
        "g",
        "n"
      ],
      [
        "t",
        "or"
      ],
      [
        "exer",
        "cise"
      ],
      [
        "chem",
        "istry"
      ],
      [
        "n",
        "ical"
      ],
      [
        "pleas",
        "ure"
      ],
      [
        "p",
        "ing"
      ],
      [
        "st",
        "o"
      ],
      [
        "stun",
        "ning"
      ],
      [
        "in",
        "no"
      ],
      [
        "and",
        "ers"
      ],
      [
        "sur",
        "vi"
      ],
      [
        "ach",
        "ieve"
      ],
      [
        "fashion",
        "ed"
      ],
      [
        "ic",
        "es"
      ],
      [
        "tr",
        "ou"
      ],
      [
        "gre",
        "ss"
      ],
      [
        "m",
        "oney"
      ],
      [
        "serious",
        "ly"
      ],
      [
        "rare",
        "ly"
      ],
      [
        "ch",
        "ill"
      ],
      [
        "cor",
        "n"
      ],
      [
        "qu",
        "ir"
      ],
      [
        "g",
        "ing"
      ],
      [
        "re",
        "turn"
      ],
      [
        "feature",
        "s"
      ],
      [
        "sit",
        "u"
      ],
      [
        "gu",
        "il"
      ],
      [
        "sk",
        "y"
      ],
      [
        "st",
        "age"
      ],
      [
        "ex",
        "p"
      ],
      [
        "wor",
        "se"
      ],
      [
        "me",
        "ans"
      ],
      [
        "am",
        "oun"
      ],
      [
        "gri",
        "pping"
      ],
      [
        "po",
        "ints"
      ],
      [
        "fe",
        "ar"
      ],
      [
        "con",
        "ce"
      ],
      [
        "surpris",
        "ing"
      ],
      [
        "l",
        "oud"
      ],
      [
        "potent",
        "ial"
      ],
      [
        "us",
        "s"
      ],
      [
        "w",
        "itty"
      ],
      [
        "dist",
        "ur"
      ],
      [
        "s",
        "al"
      ],
      [
        "a",
        "ff"
      ],
      [
        "id",
        "es"
      ],
      [
        "c",
        "ame"
      ],
      [
        "ne",
        "ar"
      ],
      [
        "crow",
        "d"
      ],
      [
        "ra",
        "w"
      ],
      [
        "at",
        "or"
      ],
      [
        "supp",
        "ort"
      ],
      [
        "ac",
        "ross"
      ],
      [
        "r",
        "on"
      ],
      [
        "no",
        "stal"
      ],
      [
        "gi",
        "ving"
      ],
      [
        "genuine",
        "ly"
      ],
      [
        "su",
        "p"
      ],
      [
        "b",
        "low"
      ],
      [
        "ep",
        "is"
      ],
      [
        "ph",
        "ys"
      ],
      [
        "s",
        "our"
      ],
      [
        "s",
        "mo"
      ],
      [
        "fl",
        "ash"
      ],
      [
        "bi",
        "op"
      ],
      [
        "fe",
        "male"
      ],
      [
        "um",
        "ber"
      ],
      [
        "s",
        "and"
      ],
      [
        "block",
        "bust"
      ],
      [
        "ri",
        "ve"
      ],
      [
        "brit",
        "ish"
      ],
      [
        "deta",
        "il"
      ],
      [
        "ta",
        "gon"
      ],
      [
        "cour",
        "se"
      ],
      [
        "co",
        "ck"
      ],
      [
        "h",
        "its"
      ],
      [
        "tra",
        "d"
      ],
      [
        "ren",
        "t"
      ],
      [
        "tain",
        "s"
      ],
      [
        "ant",
        "i"
      ],
      [
        "st",
        "ren"
      ],
      [
        "issu",
        "es"
      ],
      [
        "ex",
        "press"
      ],
      [
        "the",
        "at"
      ],
      [
        "a",
        "po"
      ],
      [
        "ad",
        "ults"
      ],
      [
        "tri",
        "p"
      ],
      [
        "vi",
        "des"
      ],
      [
        "tw",
        "ists"
      ],
      [
        "hum",
        "our"
      ],
      [
        "utter",
        "ly"
      ],
      [
        "i",
        "bly"
      ],
      [
        "the",
        "ater"
      ],
      [
        "pac",
        "ed"
      ],
      [
        "al",
        "one"
      ],
      [
        "other",
        "s"
      ],
      [
        "absolute",
        "ly"
      ],
      [
        "fut",
        "ure"
      ],
      [
        "gre",
        "en"
      ],
      [
        "comed",
        "ies"
      ],
      [
        "de",
        "mon"
      ],
      [
        "au",
        "then"
      ],
      [
        "absur",
        "d"
      ],
      [
        "di",
        "es"
      ],
      [
        "um",
        "ph"
      ],
      [
        "u",
        "de"
      ],
      [
        "en",
[...]
